{"version":"1.0","truncation":null,"padding":null,"added_tokens":[{"id":0,"special":true,"content":"[PAD]","single_word":false,"lstrip":false,"rstrip":false,"normalized":false},{"id":1,"special":true,"content":"[UNK]","single_word":false,"lstrip":false,"rstrip":false,"normalized":false},{"id":2,"special":true,"content":"[CLS]","single_word":false,"lstrip":false,"rstrip":false,"normalized":false},{"id":3,"special":true,"content":"[SEP]","single_word":false,"lstrip":false,"rstrip":false,"normalized":false},{"id":4,"special":true,"content":"[MASK]","single_word":false,"lstrip":true,"rstrip":false,"normalized":false}],"normalizer":{"type":"NFKC"},"pre_tokenizer":{"type":"Metaspace","replacement":"▁","add_prefix_space":true},"post_processor":{"type":"TemplateProcessing","single":[{"SpecialToken":{"id":"[CLS]","type_id":0}},{"Sequence":{"id":"A","type_id":0}},{"SpecialToken":{"id":"[SEP]","type_id":0}}],"pair":[{"SpecialToken":{"id":"[CLS]","type_id":0}},{"Sequence":{"id":"A","type_id":0}},{"SpecialToken":{"id":"[SEP]","type_id":0}},{"Sequence":{"id":"B","type_id":1}},{"SpecialToken":{"id":"[SEP]","type_id":1}}],"special_tokens":{"[CLS]":{"id":"[CLS]","ids":[2],"tokens":["[CLS]"]},"[SEP]":{"id":"[SEP]","ids":[3],"tokens":["[SEP]"]}}},"decoder":{"type":"Metaspace","replacement":"▁","add_prefix_space":true},"model":{"type":"BPE","dropout":null,"unk_token":null,"continuing_subword_prefix":null,"end_of_word_suffix":null,"fuse_unk":false,"vocab":{"[PAD]":0,"[UNK]":1,"[CLS]":2,"[SEP]":3,"[MASK]":4,"\n":5,"!":6,"\"":7,"#":8,"$":9,"%":10,"&":11,"'":12,"(":13,")":14,"*":15,"+":16,",":17,"-":18,".":19,"/":20,"0":21,"1":22,"2":23,"3":24,"4":25,"5":26,"6":27,"7":28,"8":29,"9":30,":":31,";":32,"<":33,"=":34,">":35,"?":36,"@":37,"A":38,"B":39,"C":40,"D":41,"E":42,"F":43,"G":44,"H":45,"I":46,"J":47,"K":48,"L":49,"M":50,"N":51,"O":52,"P":53,"Q":54,"R":55,"S":56,"T":57,"U":58,"V":59,"W":60,"X":61,"Y":62,"Z":63,"[":64,"\\":65,"]":66,"^":67,"_":68,"`":69,"a":70,"b":71,"c":72,"d":73,"e":74,"f":75,"g":76,"h":77,"i":78,"j":79,"k":80,"l":81,"m":82,"n":83,"o":84,"p":85,"q":86,"r":87,"s":88,"t":89,"u":90,"v":91,"w":92,"x":93,"y":94,"z":95,"{":96,"|":97,"}":98,"~":99,"¡":100,"¢":101,"£":102,"¥":103,"§":104,"«":105,"­":106,"®":107,"°":108,"±":109,"·":110,"»":111,"¿":112,"À":113,"Á":114,"Â":115,"Ä":116,"Å":117,"Æ":118,"Ç":119,"È":120,"É":121,"Í":122,"Î":123,"Ó":124,"Ö":125,"×":126,"Ø":127,"Ú":128,"Ü":129,"Þ":130,"ß":131,"à":132,"á":133,"â":134,"ã":135,"ä":136,"å":137,"æ":138,"ç":139,"è":140,"é":141,"ê":142,"ë":143,"ì":144,"í":145,"î":146,"ï":147,"ð":148,"ñ":149,"ò":150,"ó":151,"ô":152,"õ":153,"ö":154,"ø":155,"ù":156,"ú":157,"û":158,"ü":159,"ý":160,"þ":161,"ÿ":162,"Ā":163,"ā":164,"ă":165,"ą":166,"Ć":167,"ć":168,"Č":169,"č":170,"Đ":171,"đ":172,"ē":173,"ė":174,"ę":175,"ě":176,"ğ":177,"ġ":178,"ħ":179,"ĩ":180,"ī":181,"İ":182,"ı":183,"ľ":184,"Ł":185,"ł":186,"ń":187,"ņ":188,"ň":189,"ŋ":190,"Ō":191,"ō":192,"ŏ":193,"ő":194,"Œ":195,"œ":196,"ř":197,"Ś":198,"ś":199,"Ş":200,"ş":201,"Š":202,"š":203,"Ţ":204,"ţ":205,"ť":206,"ũ":207,"ū":208,"ŭ":209,"ů":210,"ų":211,"ŵ":212,"ŷ":213,"ź":214,"Ż":215,"ż":216,"Ž":217,"ž":218,"ƒ":219,"ơ":220,"ư":221,"ǎ":222,"ǐ":223,"ǒ":224,"ǔ":225,"ǫ":226,"Ș":227,"ș":228,"Ț":229,"ț":230,"ɐ":231,"ɑ":232,"ɒ":233,"ɔ":234,"ɕ":235,"ɖ":236,"ə":237,"ɛ":238,"ɜ":239,"ɟ":240,"ɡ":241,"ɣ":242,"ɦ":243,"ɨ":244,"ɪ":245,"ɫ":246,"ɬ":247,"ɯ":248,"ɲ":249,"ɾ":250,"ʀ":251,"ʁ":252,"ʂ":253,"ʃ":254,"ʊ":255,"ʋ":256,"ʌ":257,"ʒ":258,"ʔ":259,"ʕ":260,"ʻ":261,"ʼ":262,"ʾ":263,"ʿ":264,"ˀ":265,"ˈ":266,"ˌ":267,"ː":268,"́":269,"̃":270,"̆":271,"̈":272,"̊":273,"̍":274,"̝":275,"̞":276,"̠":277,"̥":278,"̩":279,"̪":280,"̯":281,"͡":282,"Α":283,"Β":284,"Γ":285,"Δ":286,"Ε":287,"Η":288,"Θ":289,"Ι":290,"Κ":291,"Λ":292,"Μ":293,"Ν":294,"Ο":295,"Π":296,"Ρ":297,"Σ":298,"Τ":299,"Υ":300,"Φ":301,"Χ":302,"Ψ":303,"Ω":304,"ά":305,"έ":306,"ή":307,"ί":308,"α":309,"β":310,"γ":311,"δ":312,"ε":313,"ζ":314,"η":315,"θ":316,"ι":317,"κ":318,"λ":319,"μ":320,"ν":321,"ξ":322,"ο":323,"π":324,"ρ":325,"ς":326,"σ":327,"τ":328,"υ":329,"φ":330,"χ":331,"ψ":332,"ω":333,"ό":334,"ύ":335,"ώ":336,"А":337,"Б":338,"В":339,"Г":340,"Д":341,"Е":342,"З":343,"И":344,"К":345,"Л":346,"М":347,"Н":348,"О":349,"П":350,"Р":351,"С":352,"Т":353,"У":354,"а":355,"б":356,"в":357,"г":358,"д":359,"е":360,"ж":361,"з":362,"и":363,"й":364,"к":365,"л":366,"м":367,"н":368,"о":369,"п":370,"р":371,"с":372,"т":373,"у":374,"ф":375,"х":376,"ц":377,"ч":378,"ш":379,"ъ":380,"ы":381,"ь":382,"э":383,"ю":384,"я":385,"ё":386,"і":387,"ј":388,"ћ":389,"Ա":390,"Հ":391,"ա":392,"գ":393,"ե":394,"թ":395,"ի":396,"լ":397,"կ":398,"ղ":399,"մ":400,"յ":401,"ն":402,"ո":403,"ս":404,"վ":405,"տ":406,"ր":407,"ց":408,"ւ":409,"ք":410,"ְ":411,"ִ":412,"ֵ":413,"ֶ":414,"ַ":415,"ָ":416,"ֹ":417,"ּ":418,"א":419,"ב":420,"ג":421,"ד":422,"ה":423,"ו":424,"ז":425,"ח":426,"ט":427,"י":428,"כ":429,"ל":430,"ם":431,"מ":432,"ן":433,"נ":434,"ס":435,"ע":436,"פ":437,"צ":438,"ק":439,"ר":440,"ש":441,"ת":442,"ء":443,"أ":444,"إ":445,"ا":446,"ب":447,"ة":448,"ت":449,"ث":450,"ج":451,"ح":452,"خ":453,"د":454,"ذ":455,"ر":456,"ز":457,"س":458,"ش":459,"ص":460,"ض":461,"ط":462,"ع":463,"غ":464,"ف":465,"ق":466,"ك":467,"ل":468,"م":469,"ن":470,"ه":471,"و":472,"ى":473,"ي":474,"َ":475,"ِ":476,"ّ":477,"ْ":478,"ی":479,"ं":480,"अ":481,"क":482,"ग":483,"च":484,"ज":485,"ट":486,"ण":487,"त":488,"द":489,"ध":490,"न":491,"प":492,"ब":493,"भ":494,"म":495,"य":496,"र":497,"ल":498,"व":499,"श":500,"ष":501,"स":502,"ह":503,"ा":504,"ि":505,"ी":506,"ु":507,"ू":508,"ृ":509,"े":510,"ो":511,"्":512,"ক":513,"ল":514,"া":515,"্":516,"க":517,"ம":518,"ர":519,"ா":520,"ி":521,"்":522,"ก":523,"ข":524,"ง":525,"จ":526,"ช":527,"ด":528,"ต":529,"ท":530,"น":531,"บ":532,"ป":533,"พ":534,"ม":535,"ย":536,"ร":537,"ล":538,"ว":539,"ศ":540,"ส":541,"ห":542,"อ":543,"ะ":544,"ั":545,"า":546,"ิ":547,"ี":548,"ุ":549,"ู":550,"เ":551,"แ":552,"่":553,"้":554,"์":555,"་":556,"င":557,"ဆ":558,"န":559,"ပ":560,"ရ":561,"်":562,"ြ":563,"ა":564,"ე":565,"ი":566,"ლ":567,"მ":568,"რ":569,"ს":570,"უ":571,"ត":572,"ន":573,"ម":574,"រ":575,"ស":576,"ា":577,"្":578,"ᵻ":579,"ḍ":580,"Ḥ":581,"ḥ":582,"ḷ":583,"ḻ":584,"ṃ":585,"ṅ":586,"ṇ":587,"ṛ":588,"ṣ":589,"ṭ":590,"ạ":591,"ả":592,"ấ":593,"ầ":594,"ẩ":595,"ậ":596,"ắ":597,"ẵ":598,"ế":599,"ễ":600,"ệ":601,"ị":602,"ọ":603,"ố":604,"ồ":605,"ổ":606,"ỗ":607,"ộ":608,"ớ":609,"ờ":610,"ở":611,"ợ":612,"ụ":613,"ủ":614,"ứ":615,"ử":616,"ữ":617,"ự":618,"ỳ":619,"ỹ":620,"ἀ":621,"ἄ":622,"Ἀ":623,"ἐ":624,"ἔ":625,"ἰ":626,"ἱ":627,"ὁ":628,"ὐ":629,"ὑ":630,"ὴ":631,"ὶ":632,"ὸ":633,"ᾶ":634,"ῆ":635,"ῖ":636,"ῦ":637,"ῶ":638,"​":639,"‌":640,"‍":641,"‐":642,"–":643,"—":644,"―":645,"‘":646,"’":647,"“":648,"”":649,"„":650,"†":651,"‡":652,"•":653,"‰":654,"′":655,"⁄":656,"₣":657,"₤":658,"₩":659,"€":660,"₱":661,"₹":662,"→":663,"⇌":664,"∂":665,"∈":666,"∑":667,"−":668,"∗":669,"√":670,"∞":671,"∴":672,"≈":673,"≠":674,"≡":675,"≤":676,"≥":677,"⊕":678,"⊗":679,"⋅":680,"▁":681,"☆":682,"☉":683,"♥":684,"♦":685,"♭":686,"♯":687,"⟨":688,"⟩":689,"ⴰ":690,"、":691,"〈":692,"〉":693,"「":694,"」":695,"〜":696,"あ":697,"い":698,"う":699,"え":700,"お":701,"か":702,"が":703,"き":704,"く":705,"ぐ":706,"け":707,"こ":708,"さ":709,"し":710,"じ":711,"す":712,"せ":713,"た":714,"だ":715,"ち":716,"っ":717,"つ":718,"て":719,"で":720,"と":721,"ど":722,"な":723,"に":724,"の":725,"は":726,"ば":727,"ひ":728,"ふ":729,"へ":730,"ぽ":731,"ま":732,"み":733,"め":734,"も":735,"ゃ":736,"ゆ":737,"よ":738,"ら":739,"り":740,"る":741,"れ":742,"を":743,"ん":744,"ァ":745,"ア":746,"ィ":747,"イ":748,"ウ":749,"ェ":750,"エ":751,"ォ":752,"オ":753,"カ":754,"ガ":755,"キ":756,"ギ":757,"ク":758,"グ":759,"ケ":760,"ゲ":761,"コ":762,"ゴ":763,"サ":764,"ザ":765,"シ":766,"ジ":767,"ス":768,"ズ":769,"セ":770,"ゼ":771,"ソ":772,"タ":773,"ダ":774,"チ":775,"ッ":776,"ツ":777,"テ":778,"デ":779,"ト":780,"ド":781,"ナ":782,"ニ":783,"ネ":784,"ノ":785,"ハ":786,"バ":787,"パ":788,"ヒ":789,"ビ":790,"ピ":791,"フ":792,"ブ":793,"プ":794,"ベ":795,"ペ":796,"ホ":797,"ボ":798,"ポ":799,"マ":800,"ミ":801,"ム":802,"メ":803,"モ":804,"ャ":805,"ヤ":806,"ュ":807,"ユ":808,"ョ":809,"ラ":810,"リ":811,"ル":812,"レ":813,"ロ":814,"ワ":815,"ン":816,"ヴ":817,"・":818,"ー":819,"一":820,"三":821,"上":822,"下":823,"不":824,"世":825,"个":826,"中":827,"丸":828,"主":829,"之":830,"事":831,"二":832,"五":833,"井":834,"京":835,"人":836,"代":837,"伊":838,"会":839,"伝":840,"作":841,"僕":842,"光":843,"全":844,"八":845,"公":846,"内":847,"写":848,"剣":849,"劉":850,"動":851,"北":852,"十":853,"千":854,"南":855,"原":856,"台":857,"史":858,"司":859,"合":860,"名":861,"君":862,"周":863,"和":864,"四":865,"国":866,"國":867,"園":868,"地":869,"型":870,"城":871,"場":872,"塊":873,"士":874,"外":875,"夜":876,"夢":877,"大":878,"天":879,"太":880,"女":881,"子":882,"学":883,"守":884,"安":885,"宗":886,"宮":887,"家":888,"寺":889,"小":890,"少":891,"山":892,"島":893,"川":894,"師":895,"平":896,"年":897,"式":898,"張":899,"心":900,"恋":901,"愛":902,"成":903,"我":904,"戦":905,"所":906,"手":907,"政":908,"教":909,"文":910,"新":911,"方":912,"旋":913,"日":914,"明":915,"星":916,"春":917,"時":918,"書":919,"月":920,"有":921,"朝":922,"木":923,"本":924,"李":925,"村":926,"東":927,"林":928,"機":929,"歌":930,"正":931,"武":932,"殿":933,"氏":934,"民":935,"水":936,"永":937,"法":938,"海":939,"火":940,"物":941,"王":942,"生":943,"田":944,"界":945,"白":946,"百":947,"的":948,"真":949,"眼":950,"石":951,"社":952,"神":953,"空":954,"第":955,"紅":956,"編":957,"美":958,"者":959,"聖":960,"能":961,"艦":962,"良":963,"花":964,"華":965,"葉":966,"藤":967,"行":968,"術":969,"西":970,"見":971,"記":972,"詩":973,"語":974,"説":975,"議":976,"谷":977,"賦":978,"路":979,"軍":980,"転":981,"道":982,"郎":983,"部":984,"野":985,"金":986,"銀":987,"長":988,"門":989,"院":990,"集":991,"雪":992,"青":993,"風":994,"香":995,"馬":996,"高":997,"鬼":998,"魂":999,"魔":1000,"黄":1001,"鼓":1002,"龍":1003,"﻿":1004,"▁t":1005,"he":1006,"▁a":1007,"in":1008,"▁the":1009,"er":1010,"on":1011,"▁,":1012,"re":1013,"▁s":1014,"ed":1015,"▁w":1016,"▁o":1017,"nd":1018,"at":1019,"▁.":1020,"or":1021,"en":1022,"▁c":1023,"it":1024,"▁f":1025,"is":1026,"es":1027,"ar":1028,"▁b":1029,"▁of":1030,"an":1031,"▁in":1032,"al":1033,"ing":1034,"▁p":1035,"as":1036,"▁and":1037,"▁to":1038,"ic":1039,"ro":1040,"▁m":1041,"▁d":1042,"▁h":1043,"ion":1044,"le":1045,"▁\n":1046,"ou":1047,"▁T":1048,"▁re":1049,"▁=":1050,"▁S":1051,"il":1052,"▁A":1053,"ent":1054,"▁\"":1055,"▁1":1056,"▁th":1057,"st":1058,"el":1059,"▁C":1060,"▁l":1061,"▁@":1062,"om":1063,"▁e":1064,"am":1065,"▁n":1066,"ad":1067,"ac":1068,"▁was":1069,"▁M":1070,"▁B":1071,"ec":1072,"▁on":1073,"▁The":1074,"ly":1075,"ur":1076,"▁'":1077,"et":1078,"id":1079,"ol":1080,"▁g":1081,"im":1082,"▁I":1083,"-@":1084,"▁@-@":1085,"▁for":1086,"ir":1087,"ig":1088,"iv":1089,"ot":1090,"ter":1091,"▁H":1092,"ut":1093,"▁as":1094,"us":1095,"ow":1096,"ith":1097,"ay":1098,"▁2":1099,"▁P":1100,"▁st":1101,"▁'s":1102,"▁he":1103,"ver":1104,"ation":1105,"▁with":1106,"▁be":1107,"▁R":1108,"▁that":1109,"▁D":1110,"ce":1111,"un":1112,"em":1113,"▁W":1114,"▁wh":1115,"▁F":1116,"ch":1117,"▁by":1118,"th":1119,"▁al":1120,"▁)":1121,"▁(":1122,"▁L":1123,"ul":1124,"▁G":1125,"▁is":1126,"▁con":1127,"ers":1128,"▁at":1129,"ct":1130,"▁N":1131,"ra":1132,"os":1133,"▁19":1134,"▁an":1135,"▁it":1136,"her":1137,"rom":1138,"and":1139,"um":1140,"▁J":1141,"est":1142,"00":1143,"▁his":1144,"▁E":1145,"ag":1146,"av":1147,"ain":1148,"ri":1149,"od":1150,"▁from":1151,"▁O":1152,"ist":1153,"▁com":1154,"▁v":1155,"▁pro":1156,"op":1157,"ill":1158,"ore":1159,"if":1160,"ld":1161,"up":1162,"▁r":1163,"ew":1164,"ere":1165,"res":1166,"igh":1167,"▁In":1168,"ies":1169,"▁de":1170,"ber":1171,"art":1172,"ard":1173,"ort":1174,"▁se":1175,"ich":1176,"▁were":1177,"ate":1178,"all":1179,"ak":1180,"ant":1181,"oc":1182,"ud":1183,"ap":1184,"qu":1185,"▁ex":1186,"ong":1187,"ab":1188,"▁ch":1189,"▁or":1190,"▁K":1191,"gh":1192,"ear":1193,"ess":1194,"ated":1195,"▁pl":1196,"▁sh":1197,"ity":1198,"ip":1199,"ive":1200,"ame":1201,"▁U":1202,"▁had":1203,"ect":1204,"ack":1205,"▁St":1206,"▁su":1207,"ast":1208,"se":1209,"red":1210,"▁k":1211,"ge":1212,"▁which":1213,"our":1214,"ment":1215,"▁le":1216,"und":1217,"▁are":1218,"ian":1219,"ov":1220,"ial":1221,"▁not":1222,"ell":1223,"▁sp":1224,"ost":1225,"▁y":1226,"ight":1227,"ia":1228,"ord":1229,"ust":1230,"ary":1231,"ine":1232,"ther":1233,"pt":1234,"rit":1235,"▁3":1236,"oun":1237,"pp":1238,"ical":1239,"▁Ch":1240,"ave":1241,"▁un":1242,"▁200":1243,"cc":1244,"▁inc":1245,"fter":1246,"ould":1247,"▁V":1248,"▁but":1249,"irst":1250,"ish":1251,"ous":1252,"te":1253,"ff":1254,"ions":1255,"so":1256,"▁comp":1257,"▁20":1258,"ide":1259,"▁ro":1260,"ure":1261,"▁whe":1262,"▁ar":1263,"ub":1264,"▁cont":1265,"ie":1266,"▁;":1267,"og":1268,"ign":1269,"▁first":1270,"▁cl":1271,"wo":1272,"▁her":1273,"ry":1274,"ue":1275,"▁its":1276,"ass":1277,"▁their":1278,"orm":1279,"▁–":1280,"ok":1281,"ork":1282,"▁int":1283,"▁res":1284,"▁He":1285,"▁:":1286,"ater":1287,"▁also":1288,"▁ab":1289,"ond":1290,"▁ad":1291,"ome":1292,"out":1293,"ran":1294,"mer":1295,"ire":1296,"hed":1297,"ru":1298,"▁us":1299,"age":1300,"du":1301,"▁4":1302,"ime":1303,"low":1304,"▁per":1305,"per":1306,"▁who":1307,"▁5":1308,"▁Th":1309,"▁one":1310,"▁have":1311,"▁sc":1312,"pl":1313,"ally":1314,"own":1315,"ile":1316,"▁rec":1317,"ted":1318,"▁18":1319,".@":1320,"▁@.@":1321,"▁two":1322,"ition":1323,"ugh":1324,"iz":1325,"ree":1326,"ence":1327,"uring":1328,"ts":1329,"port":1330,"▁been":1331,"▁part":1332,"▁bec":1333,"ice":1334,"▁has":1335,"▁ag":1336,"▁Al":1337,"▁app":1338,"▁201":1339,",@":1340,"▁@,@":1341,"ough":1342,"▁j":1343,"▁en":1344,"▁dis":1345,"lud":1346,"ke":1347,"▁over":1348,"▁ser":1349,"▁this":1350,"ory":1351,"ely":1352,"▁year":1353,"ations":1354,"ember":1355,"ren":1356,"ction":1357,"ound":1358,"ach":1359,"▁off":1360,"▁after":1361,"ric":1362,"▁up":1363,"land":1364,"▁des":1365,"ace":1366,"▁play":1367,"▁It":1368,"ark":1369,"over":1370,"ance":1371,"▁out":1372,"▁they":1373,"▁man":1374,"ade":1375,"▁te":1376,"act":1377,"▁other":1378,"ib":1379,"man":1380,"ult":1381,"▁im":1382,"▁Y":1383,"ph":1384,"ress":1385,"▁includ":1386,"ced":1387,"ens":1388,"urn":1389,"wn":1390,"▁would":1391,"ind":1392,"▁time":1393,"one":1394,"▁into":1395,"▁pre":1396,"vel":1397,"▁On":1398,"▁Un":1399,"ward":1400,"we":1401,"▁we":1402,"▁him":1403,"ite":1404,"oin":1405,"ates":1406,"▁6":1407,"▁she":1408,"les":1409,"▁ev":1410,"▁att":1411,"ilm":1412,"ased":1413,"▁ne":1414,"ited":1415,"able":1416,"end":1417,"ied":1418,"ase":1419,"amp":1420,"▁comm":1421,"ors":1422,"▁inter":1423,"are":1424,"rough":1425,"oy":1426,"ons":1427,"ount":1428,"ep":1429,"form":1430,"▁all":1431,"ose":1432,"ood":1433,"ang":1434,"▁more":1435,"ces":1436,"▁work":1437,"▁7":1438,"ail":1439,"old":1440,"aw":1441,"ered":1442,"ings":1443,"ve":1444,"▁An":1445,"ild":1446,"▁new":1447,"▁sec":1448,"▁bet":1449,"▁when":1450,"inal":1451,"▁fe":1452,"▁film":1453,"ick":1454,"vi":1455,"ents":1456,"▁Se":1457,"att":1458,"way":1459,"ft":1460,"iss":1461,"aus":1462,"▁8":1463,"fer":1464,"gan":1465,"▁Mar":1466,"reat":1467,"▁cons":1468,"rib":1469,"▁Ar":1470,"round":1471,"ake":1472,"▁rem":1473,"ved":1474,"▁tr":1475,"▁dec":1476,"ason":1477,"ans":1478,"▁during":1479,"orth":1480,"▁und":1481,"▁9":1482,"ubl":1483,"hip":1484,"▁again":1485,"▁As":1486,"▁most":1487,"▁game":1488,"oth":1489,"▁them":1490,"▁199":1491,"▁only":1492,"▁pr":1493,"ween":1494,"ath":1495,"ix":1496,"▁ear":1497,"ollow":1498,"▁than":1499,"ob":1500,"rop":1501,"▁sup":1502,"ational":1503,"▁New":1504,"fore":1505,"▁about":1506,"▁produ":1507,"ug":1508,"▁cent":1509,"tern":1510,"▁kn":1511,"▁ret":1512,"ey":1513,"▁char":1514,"▁song":1515,"▁can":1516,"outh":1517,"▁between":1518,"▁later":1519,"orn":1520,"▁rele":1521,"▁under":1522,"ict":1523,"▁three":1524,"ton":1525,"hn":1526,"ron":1527,"▁col":1528,"▁act":1529,"▁00":1530,"als":1531,"▁qu":1532,"▁through":1533,"▁En":1534,"orld":1535,"ook":1536,"▁num":1537,"▁so":1538,"▁me":1539,"▁acc":1540,"▁rel":1541,"▁while":1542,"▁ra":1543,"▁end":1544,"meric":1545,"▁Americ":1546,"▁fl":1547,"lect":1548,"▁Le":1549,"ters":1550,"ock":1551,"ral":1552,"▁pos":1553,"▁sub":1554,"ever":1555,"▁ass":1556,"ular":1557,"ating":1558,"▁where":1559,"▁ver":1560,"▁day":1561,"ck":1562,"▁reg":1563,"▁second":1564,"▁Com":1565,"aid":1566,"ener":1567,"▁bu":1568,"ision":1569,"▁made":1570,"ames":1571,"ived":1572,"▁Re":1573,"▁pe":1574,"hes":1575,"▁record":1576,"son":1577,"▁def":1578,"bum":1579,"▁four":1580,"▁gro":1581,"▁follow":1582,"▁season":1583,"▁000":1584,"▁ep":1585,"▁form":1586,"▁some":1587,"▁such":1588,"▁am":1589,"ool":1590,"ished":1591,"▁mov":1592,"▁before":1593,"▁tra":1594,"▁Sp":1595,"▁mus":1596,"▁there":1597,"▁writ":1598,"hen":1599,"ics":1600,"io":1601,"▁Jo":1602,"▁spec":1603,"iel":1604,"▁10":1605,"ike":1606,"▁sy":1607,"▁years":1608,"▁team":1609,"▁At":1610,"ode":1611,"ual":1612,"▁This":1613,"▁/":1614,"ident":1615,"▁lar":1616,"▁Sh":1617,"▁album":1618,"▁ind":1619,"ros":1620,"ily":1621,"owever":1622,"▁ent":1623,"ning":1624,"▁used":1625,"ank":1626,"▁call":1627,"▁sur":1628,"ific":1629,"▁ac":1630,"▁high":1631,"ury":1632,"▁publ":1633,"▁being":1634,"▁epis":1635,"ained":1636,"▁then":1637,"led":1638,"ten":1639,"aj":1640,"velop":1641,"▁loc":1642,"▁do":1643,"▁exp":1644,"ife":1645,"ris":1646,"▁against":1647,"▁17":1648,"▁inv":1649,"▁0":1650,"▁bl":1651,"▁pres":1652,"▁number":1653,"other":1654,"▁After":1655,"▁show":1656,"▁charac":1657,"ious":1658,"▁sever":1659,"▁add":1660,"▁co":1661,"ek":1662,"▁set":1663,"ince":1664,"ject":1665,"▁Brit":1666,"ars":1667,"▁became":1668,"▁rece":1669,"ause":1670,"▁perform":1671,"▁lead":1672,"▁including":1673,"ines":1674,"▁no":1675,"▁—":1676,"▁sing":1677,"ather":1678,"ins":1679,"rans":1680,"▁United":1681,"▁found":1682,"air":1683,"▁well":1684,"▁mon":1685,"▁rep":1686,"▁Sc":1687,"ale":1688,"▁pol":1689,"▁back":1690,"▁both":1691,"▁cap":1692,"ier":1693,"▁198":1694,"▁15":1695,"▁series":1696,"▁12":1697,"ober":1698,"ram":1699,"ik":1700,"▁ship":1701,"▁Con":1702,"ower":1703,"ement":1704,"its":1705,"ert":1706,"ures":1707,"ired":1708,"ley":1709,"▁Wh":1710,"▁She":1711,"ivers":1712,"▁main":1713,"▁194":1714,"pen":1715,"▁min":1716,"iet":1717,"der":1718,"overn":1719,"▁did":1720,"ven":1721,"olog":1722,"▁go":1723,"elf":1724,"▁cre":1725,"▁imp":1726,"▁develop":1727,"az":1728,"▁met":1729,"ities":1730,"iver":1731,"▁Eng":1732,"▁long":1733,"any":1734,"ll":1735,"ised":1736,"erm":1737,"ting":1738,"uch":1739,"ared":1740,"▁em":1741,"ann":1742,"ane":1743,"▁mill":1744,"ird":1745,"ful":1746,"▁John":1747,"▁mat":1748,"▁air":1749,"▁episode":1750,"tend":1751,"irect":1752,"▁said":1753,"▁stud":1754,"▁many":1755,"ute":1756,"▁bro":1757,"▁dep":1758,"▁car":1759,"ative":1760,"ash":1761,"▁could":1762,"▁16":1763,"▁war":1764,"▁orig":1765,"▁contin":1766,"▁Cl":1767,"▁several":1768,"▁American":1769,"though":1770,"▁Ind":1771,"▁dif":1772,"ield":1773,"ah":1774,"▁pop":1775,"▁inst":1776,"ouse":1777,"ise":1778,"emb":1779,"▁known":1780,"▁197":1781,"▁Aust":1782,"ty":1783,"ually":1784,"▁196":1785,"▁11":1786,"▁conc":1787,"til":1788,"iam":1789,"▁War":1790,"view":1791,"erson":1792,"▁ob":1793,"▁Ger":1794,"ued":1795,"▁sm":1796,"▁return":1797,"▁began":1798,"▁Z":1799,"▁any":1800,"▁comple":1801,"▁design":1802,"ern":1803,"▁De":1804,"▁desc":1805,"▁sign":1806,"ross":1807,"ople":1808,"chool":1809,"my":1810,"▁est":1811,"ism":1812,"oot":1813,"0s":1814,"▁trans":1815,"ccess":1816,"▁prov":1817,"aking":1818,"▁feat":1819,"▁Bl":1820,"ided":1821,"▁inf":1822,"anc":1823,"▁run":1824,"▁early":1825,"▁art":1826,"ized":1827,"▁dist":1828,"▁near":1829,"▁music":1830,"▁own":1831,"▁released":1832,"▁until":1833,"▁called":1834,"▁Col":1835,"▁eff":1836,"▁US":1837,"imes":1838,"ists":1839,"rid":1840,"une":1841,"▁resp":1842,"▁bel":1843,"enn":1844,"▁pass":1845,"ured":1846,"stem":1847,"▁fin":1848,"▁May":1849,"ially":1850,"▁down":1851,"▁ph":1852,"ution":1853,"▁disc":1854,"ments":1855,"▁crit":1856,"xt":1857,"osed":1858,"▁direct":1859,"▁gener":1860,"▁along":1861,"▁ins":1862,"ium":1863,"▁million":1864,"▁British":1865,"ger":1866,"ull":1867,"ax":1868,"▁German":1869,"▁group":1870,"▁offic":1871,"vent":1872,"▁13":1873,"▁fam":1874,"eb":1875,"▁these":1876,"ajor":1877,"▁mod":1878,"▁may":1879,"▁$":1880,"cept":1881,"▁open":1882,"▁Ad":1883,"▁mil":1884,"ange":1885,"▁Be":1886,"▁poin":1887,"uc":1888,"▁land":1889,"gg":1890,"▁hist":1891,"▁Aug":1892,"▁govern":1893,"▁sim":1894,"▁Sept":1895,"▁success":1896,"▁September":1897,"▁August":1898,"ets":1899,"▁oper":1900,"▁World":1901,"erv":1902,"▁attack":1903,"▁gu":1904,"ible":1905,"▁Ap":1906,"▁States":1907,"ink":1908,"▁count":1909,"▁use":1910,"▁same":1911,"wards":1912,"ys":1913,"▁describ":1914,"▁people":1915,"aced":1916,"▁For":1917,"▁Is":1918,"amed":1919,"yp":1920,"▁character":1921,"▁All":1922,"▁because":1923,"els":1924,"▁14":1925,"▁vi":1926,"▁like":1927,"▁serv":1928,"▁Ju":1929,"▁Fran":1930,"▁around":1931,"ged":1932,"▁start":1933,"▁though":1934,"▁ed":1935,"▁km":1936,"▁Pl":1937,"▁195":1938,"▁Q":1939,"ner":1940,"▁win":1941,"▁Austral":1942,"▁const":1943,"ues":1944,"ring":1945,"▁took":1946,"ruct":1947,"▁occ":1948,"▁batt":1949,"aving":1950,"▁Oct":1951,"▁ann":1952,"▁support":1953,"▁Nov":1954,"ove":1955,"▁north":1956,"▁following":1957,"▁six":1958,"▁ele":1959,"▁Car":1960,"▁193":1961,"▁However":1962,"▁system":1963,"uss":1964,"▁appear":1965,"▁final":1966,"▁class":1967,"▁received":1968,"▁head":1969,"ined":1970,"▁October":1971,"ives":1972,"▁prom":1973,"▁consid":1974,"ene":1975,"ants":1976,"rad":1977,"ling":1978,"ility":1979,"ically":1980,"▁Dec":1981,"▁Pro":1982,"▁191":1983,"▁state":1984,"▁ever":1985,"▁build":1986,"▁each":1987,"ret":1988,"anu":1989,"▁ext":1990,"▁five":1991,"rist":1992,"▁aut":1993,"rol":1994,"▁century":1995,"▁York":1996,"ina":1997,"▁bo":1998,"▁area":1999,"▁var":2000,"▁They":2001,"▁small":2002,"ately":2003,"▁will":2004,"oss":2005,"▁North":2006,"▁partic":2007,"get":2008,"▁life":2009,"iving":2010,"▁report":2011,"ril":2012,"▁Me":2013,"▁]":2014,"▁[":2015,"tle":2016,"ored":2017,"ians":2018,"▁June":2019,"▁By":2020,"▁city":2021,"ording":2022,"ped":2023,"gin":2024,"▁mar":2025,"▁major":2026,"▁public":2027,"▁week":2028,"▁King":2029,"ission":2030,"▁July":2031,"▁%":2032,"▁conf":2033,"ection":2034,"▁band":2035,"▁Har":2036,"▁ref":2037,"med":2038,"▁November":2039,"urch":2040,"inc":2041,"▁Comm":2042,"▁rest":2043,"▁Ph":2044,"▁Will":2045,"▁since":2046,"▁world":2047,"▁med":2048,"esp":2049,"raft":2050,"▁single":2051,"raph":2052,"por":2053,"▁April":2054,"ble":2055,"ains":2056,"▁Mc":2057,"ried":2058,"▁det":2059,"omet":2060,"lish":2061,"▁March":2062,"▁just":2063,"ected":2064,"▁last":2065,"▁Ed":2066,"ural":2067,"ional":2068,"..":2069,"hest":2070,"aim":2071,"cl":2072,"▁turn":2073,"ively":2074,"▁po":2075,"ilt":2076,"▁hel":2077,"ient":2078,"▁allow":2079,"▁Can":2080,"▁30":2081,"vious":2082,"▁Ge":2083,"▁left":2084,"▁large":2085,"ats":2086,"▁line":2087,"▁South":2088,"▁differ":2089,"ales":2090,"▁care":2091,"▁south":2092,"▁adv":2093,"ified":2094,"▁During":2095,"▁str":2096,"▁dr":2097,"▁...":2098,"empt":2099,"▁book":2100,"▁vers":2101,"▁sl":2102,"▁school":2103,"avy":2104,"▁December":2105,"▁third":2106,"ague":2107,"▁incre":2108,"▁25":2109,"▁month":2110,"▁due":2111,"▁appro":2112,"▁played":2113,"▁much":2114,"▁event":2115,"row":2116,"▁if":2117,"▁another":2118,"▁Janu":2119,"rote":2120,"▁January":2121,"▁Pr":2122,"▁included":2123,"▁192":2124,"▁what":2125,"▁place":2126,"▁based":2127,"ne":2128,"▁short":2129,"▁II":2130,"▁government":2131,"ony":2132,"ball":2133,"apan":2134,"▁expl":2135,"▁person":2136,"▁wrote":2137,"▁track":2138,"▁When":2139,"▁camp":2140,"▁old":2141,"▁tit":2142,"alf":2143,"▁port":2144,"▁bre":2145,"▁Eu":2146,"▁death":2147,"▁name":2148,"ently":2149,"▁Japan":2150,"▁elect":2151,"ple":2152,"rent":2153,"▁eng":2154,"▁won":2155,"by":2156,"ience":2157,"▁Or":2158,"▁prot":2159,"▁child":2160,"▁lit":2161,"oad":2162,"▁kill":2163,"▁prog":2164,"ideo":2165,"▁power":2166,"ages":2167,"▁story":2168,"▁Te":2169,"▁Bro":2170,"▁review":2171,"ital":2172,"ody":2173,"▁vis":2174,"▁home":2175,"ott":2176,"▁led":2177,"ps":2178,"▁gun":2179,"▁requ":2180,"▁described":2181,"▁previous":2182,"eng":2183,"oman":2184,"▁family":2185,"yl":2186,"rand":2187,"tain":2188,"▁way":2189,"▁named":2190,"▁now":2191,"▁right":2192,"▁Mus":2193,"▁dem":2194,"urther":2195,"iod":2196,"iven":2197,"▁men":2198,"▁even":2199,"embers":2200,"ilar":2201,"▁Gu":2202,"▁organ":2203,"▁make":2204,"reen":2205,"ont":2206,"ister":2207,"cy":2208,"iversity":2209,"▁attempt":2210,"omin":2211,"ivision":2212,"itions":2213,"▁best":2214,"▁cour":2215,"▁100":2216,"▁repl":2217,"rench":2218,"▁opp":2219,"▁leg":2220,"ior":2221,"▁games":2222,"ached":2223,"▁command":2224,"▁term":2225,"▁hand":2226,"▁And":2227,"ival":2228,"▁Fl":2229,"mp":2230,"▁poss":2231,"▁dam":2232,"▁belie":2233,"▁'t":2234,"▁very":2235,"ox":2236,"▁His":2237,"▁those":2238,"▁Feb":2239,"▁Europ":2240,"▁par":2241,"▁Febru":2242,"▁February":2243,"sh":2244,"▁iss":2245,"▁still":2246,"▁next":2247,"▁top":2248,"▁species":2249,"▁Christ":2250,"▁effect":2251,"ched":2252,"riend":2253,"▁view":2254,"▁There":2255,"▁National":2256,"oci":2257,"aken":2258,"▁original":2259,"▁spe":2260,"▁We":2261,"ences":2262,"ature":2263,"lu":2264,"▁water":2265,"ness":2266,"▁join":2267,"▁addition":2268,"▁Europe":2269,"au":2270,"▁list":2271,"▁Bar":2272,"▁within":2273,"▁period":2274,"eter":2275,"alk":2276,"▁members":2277,"▁built":2278,"▁French":2279,"▁mark":2280,"▁held":2281,"▁deb":2282,"▁Am":2283,"▁exper":2284,"hor":2285,"af":2286,"▁although":2287,"▁match":2288,"▁late":2289,"▁former":2290,"▁release":2291,"▁Par":2292,"rew":2293,"▁great":2294,"ridge":2295,"augh":2296,"▁dest":2297,"▁sold":2298,"▁cur":2299,"ney":2300,"uted":2301,"▁2010":2302,"tended":2303,"▁video":2304,"▁21":2305,"ards":2306,"▁caus":2307,"▁storm":2308,"ropical":2309,"▁West":2310,"line":2311,"ves":2312,"▁cover":2313,"ech":2314,"▁tri":2315,"▁init":2316,"▁role":2317,"▁X":2318,"▁William":2319,"self":2320,"▁came":2321,"▁estab":2322,"▁days":2323,"hel":2324,"ances":2325,"▁Her":2326,"▁result":2327,"▁mid":2328,"oon":2329,"▁present":2330,"na":2331,"lev":2332,"aged":2333,"▁control":2334,"ulation":2335,"ption":2336,"▁polit":2337,"▁stand":2338,"▁real":2339,"▁however":2340,"itary":2341,"ham":2342,"▁Man":2343,"▁Min":2344,"aster":2345,"▁2008":2346,"▁prop":2347,"let":2348,"▁wind":2349,"ense":2350,"ides":2351,"▁few":2352,"atic":2353,"▁2009":2354,"▁24":2355,"▁town":2356,"▁Geor":2357,"omb":2358,"▁side":2359,"▁you":2360,"ograph":2361,"▁tw":2362,"▁sk":2363,"▁continued":2364,"▁post":2365,"▁equ":2366,"▁often":2367,"ays":2368,"▁Ear":2369,"▁local":2370,"▁2011":2371,"elt":2372,"▁Char":2373,"ator":2374,"▁Air":2375,"▁among":2376,"ruction":2377,"▁similar":2378,"ches":2379,"▁Mich":2380,"ead":2381,"ract":2382,"▁No":2383,"▁hum":2384,"▁av":2385,"▁claim":2386,"estern":2387,"ung":2388,"omen":2389,"ese":2390,"▁England":2391,"reet":2392,"▁&":2393,"read":2394,"ops":2395,"akes":2396,"ler":2397,"ology":2398,"side":2399,"▁different":2400,"▁del":2401,"▁beh":2402,"▁my":2403,"▁Rec":2404,"par":2405,"▁further":2406,"▁22":2407,"▁sent":2408,"▁typ":2409,"esc":2410,"ots":2411,"ested":2412,"urs":2413,"▁level":2414,"▁fre":2415,"▁Dav":2416,"ery":2417,"▁considered":2418,"▁take":2419,"▁law":2420,"tal":2421,"▁El":2422,"▁2007":2423,"▁career":2424,"gy":2425,"▁One":2426,"▁production":2427,"me":2428,"▁half":2429,"arm":2430,"▁Park":2431,"▁Co":2432,"ices":2433,"ampions":2434,"▁City":2435,".S":2436,"▁having":2437,"▁ant":2438,"bo":2439,"▁Acc":2440,"▁English":2441,"▁east":2442,"▁road":2443,"▁mag":2444,"▁moved":2445,"▁dra":2446,"▁west":2447,".S.":2448,"ering":2449,"▁every":2450,"▁without":2451,"▁Although":2452,"▁cr":2453,"rodu":2454,"▁Cent":2455,"▁position":2456,"▁2012":2457,"▁appe":2458,"▁plan":2459,"▁tro":2460,"ining":2461,"▁player":2462,"ront":2463,"▁arr":2464,"▁Ang":2465,"▁history":2466,"▁cor":2467,"▁become":2468,"ones":2469,"vers":2470,"▁Cal":2471,"▁version":2472,"▁arm":2473,"▁Count":2474,"ford":2475,"ondon":2476,"▁cast":2477,"▁el":2478,"▁influ":2479,"▁23":2480,"ize":2481,"▁London":2482,"▁Batt":2483,"yle":2484,"▁house":2485,"rig":2486,"▁fore":2487,"▁commun":2488,"▁sound":2489,"resent":2490,"irc":2491,"app":2492,"roy":2493,"aul":2494,"atter":2495,"▁invol":2496,"▁strong":2497,"▁gr":2498,"▁sugg":2499,"ai":2500,"▁club":2501,"▁written":2502,"aining":2503,"▁bas":2504,"▁With":2505,"▁190":2506,"▁stat":2507,"rest":2508,"oung":2509,"▁less":2510,"▁announ":2511,"▁River":2512,"utes":2513,"▁foot":2514,"iqu":2515,"▁order":2516,"ald":2517,"iment":2518,"▁refer":2519,"iety":2520,"▁U.S.":2521,"▁tem":2522,"ges":2523,"craft":2524,"ae":2525,"▁prof":2526,"▁Canad":2527,"sequ":2528,"▁aff":2529,"▁point":2530,"▁given":2531,"▁rad":2532,"▁low":2533,"▁Gener":2534,"▁trad":2535,"▁hig":2536,"▁University":2537,"▁want":2538,"ille":2539,"▁gave":2540,"▁ke":2541,"▁pat":2542,"isc":2543,"uck":2544,"▁defe":2545,"▁import":2546,"▁never":2547,"aff":2548,"▁While":2549,"▁Pol":2550,"▁chang":2551,"▁returned":2552,"ories":2553,"ration":2554,"▁soc":2555,"▁total":2556,"▁vict":2557,"▁Ab":2558,"▁High":2559,"▁fact":2560,"▁fire":2561,"▁good":2562,"ention":2563,"▁comb":2564,"▁Tr":2565,"▁company":2566,"▁country":2567,"▁went":2568,"ailed":2569,"ison":2570,"sp":2571,"cess":2572,"ours":2573,"▁friend":2574,"▁capt":2575,"rick":2576,"▁Ex":2577,"aun":2578,"▁published":2579,"▁produced":2580,"▁find":2581,"aying":2582,"levision":2583,"▁reported":2584,"con":2585,"▁origin":2586,"▁2006":2587,"▁Sm":2588,"▁lost":2589,"aign":2590,"▁stated":2591,"▁common":2592,"▁program":2593,"▁light":2594,"ington":2595,"▁ord":2596,"yn":2597,"▁particular":2598,"ape":2599,"echn":2600,"▁adm":2601,"▁include":2602,"ests":2603,"▁According":2604,"▁larg":2605,"ably":2606,"▁er":2607,"urric":2608,"▁Ste":2609,"used":2610,"▁compet":2611,"▁forces":2612,"▁recorded":2613,"ief":2614,"▁building":2615,"▁press":2616,"▁need":2617,"▁bus":2618,"▁project":2619,"▁nort":2620,"▁Ne":2621,"hing":2622,"ument":2623,"▁ships":2624,"▁27":2625,"▁should":2626,"▁using":2627,"▁eight":2628,"osp":2629,"▁28":2630,"▁performance":2631,"iness":2632,"ploy":2633,"▁service":2634,"▁These":2635,"bs":2636,"▁Sw":2637,"▁popular":2638,"▁ide":2639,"▁times":2640,"▁50":2641,"▁making":2642,"▁ten":2643,"▁aircraft":2644,"oyal":2645,"▁military":2646,"▁Australia":2647,"▁himself":2648,"▁2013":2649,"atch":2650,"▁author":2651,"▁fun":2652,"▁father":2653,"▁battle":2654,"ampionship":2655,"▁Sec":2656,"lear":2657,"ned":2658,"▁anim":2659,"▁Jack":2660,"▁sit":2661,"▁lim":2662,"▁Ass":2663,"▁Af":2664,"▁songs":2665,"▁somet":2666,"outher":2667,"▁read":2668,"ensive":2669,"ither":2670,"▁critic":2671,"ords":2672,"▁development":2673,"▁General":2674,"▁sw":2675,"▁how":2676,"alth":2677,"▁gl":2678,"quad":2679,"eder":2680,"eth":2681,"itive":2682,"▁State":2683,"▁26":2684,"▁sol":2685,"ases":2686,"▁40":2687,"▁Cor":2688,"oll":2689,"▁cross":2690,"outhern":2691,"amb":2692,"▁James":2693,"cer":2694,"▁189":2695,"▁ground":2696,"▁represent":2697,"▁Sy":2698,"▁destroy":2699,"▁ft":2700,"acy":2701,"▁star":2702,"▁ste":2703,"▁remained":2704,"astern":2705,"▁Army":2706,"ks":2707,"rie":2708,"▁national":2709,"▁characters":2710,"▁get":2711,"ries":2712,"▁Pres":2713,"▁suff":2714,"work":2715,"▁months":2716,"▁Bo":2717,"▁Comp":2718,"aur":2719,"▁gen":2720,"▁died":2721,"▁ter":2722,"ublic":2723,"▁Gl":2724,"▁developed":2725,"▁title":2726,"dom":2727,"▁sum":2728,"▁force":2729,"ream":2730,"fic":2731,"▁chart":2732,"▁campaign":2733,"urricane":2734,"▁League":2735,"▁children":2736,"lands":2737,"▁introdu":2738,"ency":2739,"▁pra":2740,"▁tour":2741,"▁promot":2742,"itted":2743,"isted":2744,"▁signific":2745,"▁across":2746,"ael":2747,"ression":2748,"▁son":2749,"▁red":2750,"hern":2751,"▁away":2752,"▁Division":2753,"▁obs":2754,"▁relations":2755,"▁histor":2756,"▁official":2757,"▁field":2758,"▁fav":2759,"▁felt":2760,"ole":2761,"▁America":2762,"lege":2763,"▁night":2764,"▁fac":2765,"▁noted":2766,"▁Sim":2767,"alt":2768,"▁reached":2769,"▁Russ":2770,"most":2771,"▁announced":2772,"▁Sup":2773,"▁intern":2774,"▁Japanese":2775,"▁County":2776,"▁areas":2777,"▁created":2778,"▁Rep":2779,"com":2780,"▁coun":2781,"▁Mon":2782,"▁Road":2783,"▁television":2784,"▁2005":2785,"ressed":2786,"▁successful":2787,"▁station":2788,"▁Mad":2789,"hem":2790,"▁rock":2791,"▁Reg":2792,"imately":2793,"▁bar":2794,"▁val":2795,"▁Street":2796,"ising":2797,"▁Gr":2798,"▁various":2799,"▁’":2800,"▁29":2801,"▁political":2802,"▁seen":2803,"▁followed":2804,"field":2805,"▁aver":2806,"▁too":2807,"iber":2808,"ization":2809,"iting":2810,"▁rank":2811,"▁East":2812,"cast":2813,"▁served":2814,"ett":2815,"▁performed":2816,"ope":2817,"▁Rober":2818,"▁cult":2819,"reg":2820,"▁players":2821,"▁2014":2822,"▁cond":2823,"▁prim":2824,"▁rev":2825,"▁full":2826,"ination":2827,"▁decl":2828,"▁George":2829,"ality":2830,"▁begin":2831,"▁fle":2832,"▁black":2833,"duct":2834,"▁conv":2835,"elling":2836,"▁put":2837,"▁circ":2838,"▁Ser":2839,"▁Per":2840,"▁earl":2841,"▁Phil":2842,"▁To":2843,"olution":2844,"▁cost":2845,"abor":2846,"▁Hen":2847,"▁see":2848,"▁div":2849,"idence":2850,"▁process":2851,"▁non":2852,"▁style":2853,"ying":2854,"▁look":2855,"▁killed":2856,"▁cy":2857,"▁vol":2858,"▁seven":2859,"▁aud":2860,"▁Em":2861,"rict":2862,"▁tropical":2863,"▁help":2864,"lished":2865,"▁let":2866,"play":2867,"▁throughout":2868,"▁taken":2869,"▁Bill":2870,"▁fight":2871,"▁able":2872,"ana":2873,"▁discover":2874,"▁agre":2875,"ecut":2876,"urg":2877,"▁wid":2878,"▁little":2879,"▁significant":2880,"ertain":2881,"▁becom":2882,"▁age":2883,"▁hit":2884,"▁Sch":2885,"▁fem":2886,"▁ident":2887,"▁meet":2888,"ways":2889,"▁Thom":2890,"▁Australian":2891,"▁techn":2892,"▁special":2893,"irl":2894,"▁struct":2895,"oice":2896,"▁front":2897,"▁writing":2898,"▁cop":2899,"▁thought":2900,"▁mm":2901,"▁broad":2902,"▁established":2903,"enced":2904,"aval":2905,"▁Act":2906,"▁David":2907,"ius":2908,"▁Part":2909,"▁appeared":2910,"▁Mor":2911,"▁entire":2912,"▁coll":2913,"▁does":2914,"epend":2915,"▁miles":2916,"▁!":2917,"cil":2918,"▁young":2919,"▁coast":2920,"▁Rich":2921,"▁points":2922,"▁body":2923,"▁award":2924,"less":2925,"▁route":2926,"odes":2927,"▁impro":2928,"ought":2929,"▁member":2930,"ript":2931,"ground":2932,"▁Med":2933,"ivil":2934,"▁range":2935,"▁activ":2936,"ask":2937,"iron":2938,"ster":2939,"▁women":2940,"iers":2941,"▁Pe":2942,"▁started":2943,"▁caused":2944,"▁You":2945,"▁decided":2946,"int":2947,"blem":2948,"lected":2949,"▁Afric":2950,"▁features":2951,"▁pain":2952,"day":2953,"▁general":2954,"▁Qu":2955,"ators":2956,"▁eventually":2957,"iec":2958,"men":2959,"umb":2960,"oph":2961,"conom":2962,"▁Royal":2963,"▁arch":2964,"ogn":2965,"uk":2966,"▁race":2967,"den":2968,"▁vot":2969,"itar":2970,"here":2971,"▁feet":2972,"▁grow":2973,"▁manag":2974,"pped":2975,"▁Hist":2976,"ush":2977,"bert":2978,"▁added":2979,"rison":2980,"▁tre":2981,"▁hold":2982,"▁cut":2983,"▁toget":2984,"▁together":2985,"▁188":2986,"▁House":2987,"▁formed":2988,"ivid":2989,"▁located":2990,"▁once":2991,"▁white":2992,"▁stri":2993,"reek":2994,"ament":2995,"ample":2996,"▁nov":2997,"▁arg":2998,"▁modern":2999,"urb":3000,"▁conn":3001,"▁enc":3002,"off":3003,"▁Black":3004,"dle":3005,"▁Port":3006,"▁instead":3007,"head":3008,"▁round":3009,"rought":3010,"▁31":3011,"aces":3012,"▁esc":3013,"ara":3014,"emy":3015,"▁ball":3016,"▁Intern":3017,"▁mix":3018,"▁important":3019,"▁crew":3020,"cing":3021,"▁pri":3022,"▁saw":3023,"ee":3024,"▁action":3025,"▁completed":3026,"▁Ital":3027,"▁redu":3028,"▁Indian":3029,"ids":3030,"ects":3031,"▁playing":3032,"rated":3033,"▁Other":3034,"cent":3035,"oney":3036,"ells":3037,"▁2004":3038,"▁base":3039,"▁population":3040,"ata":3041,"▁surv":3042,"▁insp":3043,"▁mater":3044,"▁mot":3045,"▁My":3046,"▁stage":3047,"▁Michael":3048,"▁voc":3049,"▁guns":3050,"▁rather":3051,"▁ask":3052,"▁occur":3053,"▁behind":3054,"▁opened":3055,"▁others":3056,"▁186":3057,"▁fall":3058,"▁ren":3059,"ray":3060,"asing":3061,"ceed":3062,"▁brother":3063,"wood":3064,"igned":3065,"ements":3066,"▁comment":3067,"▁lik":3068,"lin":3069,"stit":3070,"▁born":3071,"▁site":3072,"▁2015":3073,"▁fif":3074,"▁works":3075,"▁loss":3076,"▁bomb":3077,"▁live":3078,"▁heavy":3079,"▁France":3080,"▁worked":3081,"ficult":3082,"▁miss":3083,"▁pred":3084,"▁subsequ":3085,"medi":3086,"▁lack":3087,"▁School":3088,"rap":3089,"nder":3090,"▁close":3091,"▁problem":3092,"▁difficult":3093,"▁party":3094,"lection":3095,"▁construction":3096,"▁Some":3097,"▁Wash":3098,"▁San":3099,"▁know":3100,"▁Nor":3101,"▁host":3102,"arch":3103,"▁weeks":3104,"istic":3105,"▁relationship":3106,"▁originally":3107,"▁separ":3108,"▁associ":3109,"▁reb":3110,"co":3111,"▁upon":3112,"▁pract":3113,"▁appoin":3114,"▁leading":3115,"▁peak":3116,"▁vill":3117,"▁accom":3118,"▁Henry":3119,"▁almost":3120,"▁damage":3121,"orts":3122,"▁mer":3123,"▁inj":3124,"lic":3125,"▁Robert":3126,"▁Ale":3127,"unk":3128,"▁fourth":3129,"osition":3130,"▁scored":3131,"▁Battle":3132,"▁inform":3133,"aps":3134,"▁reve":3135,"▁Star":3136,"▁provided":3137,"▁case":3138,"▁Music":3139,"▁mi":3140,"▁Best":3141,"ming":3142,"▁clos":3143,"board":3144,"▁engine":3145,"▁invest":3146,"▁goal":3147,"▁accept":3148,"▁Vir":3149,"▁creat":3150,"ica":3151,"▁scene":3152,"▁Red":3153,"oring":3154,"▁Desp":3155,"▁human":3156,"ellow":3157,"ino":3158,"▁Rou":3159,"ule":3160,"ological":3161,"angu":3162,"▁brought":3163,"▁500":3164,"aut":3165,"▁free":3166,"▁individ":3167,"▁187":3168,"▁Paul":3169,"▁featured":3170,"ula":3171,"▁least":3172,"▁king":3173,"▁mother":3174,"▁laun":3175,"▁allowed":3176,"▁working":3177,"▁President":3178,"ama":3179,"▁resul":3180,"▁Mil":3181,"▁towards":3182,"▁Cap":3183,"▁average":3184,"▁region":3185,"▁wanted":3186,"▁mult":3187,"▁troops":3188,"▁indust":3189,"▁tradition":3190,"▁business":3191,"aves":3192,"▁Ag":3193,"▁Hol":3194,"▁Washington":3195,"iding":3196,"▁placed":3197,"azine":3198,"▁Que":3199,"▁quick":3200,"▁ve":3201,"▁ce":3202,"▁either":3203,"ving":3204,"▁respect":3205,"▁critics":3206,"▁Bel":3207,"▁office":3208,"▁hon":3209,"▁avail":3210,"ky":3211,"▁reach":3212,"▁runs":3213,"▁example":3214,"antic":3215,"▁profess":3216,"▁material":3217,"▁recogn":3218,"▁econom":3219,"▁far":3220,"go":3221,"ened":3222,"▁wife":3223,"▁estim":3224,"to":3225,"▁army":3226,"▁neg":3227,"ze":3228,"earch":3229,"chie":3230,"ential":3231,"▁foc":3232,"▁Despite":3233,"right":3234,"▁2003":3235,"▁Follow":3236,"▁sex":3237,"▁Cour":3238,"quadron":3239,"▁interest":3240,"▁sour":3241,"ength":3242,"▁joined":3243,"▁mass":3244,"r.":3245,"▁rail":3246,"▁dou":3247,"▁generally":3248,"▁Angel":3249,"▁Hill":3250,"enes":3251,"▁Ham":3252,"▁proper":3253,"▁current":3254,"uff":3255,"▁dev":3256,"▁Hall":3257,"ourn":3258,"▁events":3259,"▁believed":3260,"▁Game":3261,"▁particip":3262,"▁Cup":3263,"▁35":3264,"of":3265,"itch":3266,"▁fig":3267,"▁Following":3268,"▁Ke":3269,"ville":3270,"▁First":3271,"be":3272,"rey":3273,"▁bill":3274,"▁Mary":3275,"▁replaced":3276,"▁z":3277,"▁mph":3278,"▁Great":3279,"▁rul":3280,"▁victory":3281,"artment":3282,"▁designed":3283,"▁Lou":3284,"▁grad":3285,"▁island":3286,"▁Je":3287,"iction":3288,"▁soon":3289,"▁nomin":3290,"sc":3291,"xic":3292,"itte":3293,"▁La":3294,"▁Gro":3295,"oor":3296,"▁Mal":3297,"▁fund":3298,"▁hours":3299,"erous":3300,"▁Two":3301,"▁employ":3302,"ification":3303,"▁involved":3304,"▁European":3305,"▁president":3306,"▁room":3307,"uel":3308,"aled":3309,"▁Championship":3310,"▁surf":3311,"▁stru":3312,"aper":3313,"val":3314,"▁finished":3315,"inf":3316,"merc":3317,"asion":3318,"west":3319,"inist":3320,"iff":3321,"emor":3322,"▁Mart":3323,"▁break":3324,"inn":3325,"▁Roman":3326,"▁Play":3327,"rac":3328,"▁hor":3329,"▁shot":3330,"▁court":3331,"rain":3332,"▁saying":3333,"aren":3334,"▁threat":3335,"arn":3336,"▁opening":3337,"▁Dan":3338,"▁score":3339,"▁Ber":3340,"▁regular":3341,"▁Route":3342,"▁desp":3343,"▁Met":3344,"▁director":3345,"ades":3346,"▁2000":3347,"▁length":3348,"BC":3349,"▁Don":3350,"cher":3351,"leg":3352,"▁indic":3353,"▁hom":3354,"▁largest":3355,"▁Mac":3356,"▁Scott":3357,"▁conduct":3358,"▁ill":3359,"oul":3360,"▁highway":3361,"▁contrib":3362,"antry":3363,"▁possible":3364,"▁travel":3365,"▁southern":3366,"now":3367,"ecutive":3368,"▁dro":3369,"ki":3370,"ishing":3371,"ude":3372,"▁minutes":3373,"ipp":3374,"▁Cro":3375,"▁remov":3376,"▁hy":3377,"▁Val":3378,"▁From":3379,"▁highest":3380,"icle":3381,"▁earlier":3382,"▁test":3383,"▁2001":3384,"▁initially":3385,"▁ly":3386,"▁available":3387,"ago":3388,"▁Sing":3389,"anned":3390,"▁Atl":3391,"▁particularly":3392,"▁percent":3393,"ander":3394,"▁hard":3395,"▁training":3396,"▁sequ":3397,"▁Wil":3398,"▁Republic":3399,"▁forced":3400,"ply":3401,"▁exist":3402,"▁Mid":3403,"▁Navy":3404,"▁must":3405,"hib":3406,"▁Charles":3407,"▁Kingdom":3408,"▁Mag":3409,"ography":3410,"▁°":3411,"asy":3412,"▁No.":3413,"rian":3414,"▁McC":3415,"▁park":3416,"▁But":3417,"▁respons":3418,"▁Off":3419,"bor":3420,"ateg":3421,"▁ended":3422,"▁wall":3423,"▁quar":3424,"▁turned":3425,"▁exc":3426,"▁Thomas":3427,"▁International":3428,"ems":3429,"▁studio":3430,"uture":3431,"▁social":3432,"▁Pal":3433,"▁Dep":3434,"rag":3435,"▁change":3436,"iforn":3437,"▁Church":3438,"ios":3439,"▁Res":3440,"heast":3441,"▁langu":3442,"▁White":3443,"▁praised":3444,"▁passed":3445,"▁northern":3446,"▁super":3447,"▁priv":3448,"▁piec":3449,"▁increased":3450,"atural":3451,"rup":3452,"▁object":3453,"▁Virgin":3454,"▁hurricane":3455,"▁2002":3456,"▁regard":3457,"▁educ":3458,"▁Brown":3459,"▁central":3460,"▁keep":3461,"ights":3462,"▁phys":3463,"itor":3464,"▁units":3465,"▁relig":3466,"▁novel":3467,"▁appearance":3468,"▁speed":3469,"▁Canada":3470,"sel":3471,"rem":3472,"▁Sl":3473,"▁past":3474,"▁Californ":3475,"▁Mer":3476,"ership":3477,"▁Rock":3478,"▁Sen":3479,"▁stop":3480,"key":3481,"ended":3482,"▁immedi":3483,"▁cou":3484,"▁church":3485,"▁Bay":3486,"▁ordered":3487,"ocr":3488,"▁disp":3489,"uter":3490,"▁sym":3491,"▁Smith":3492,"ston":3493,"▁Mo":3494,"▁meas":3495,"ique":3496,"aughter":3497,"▁treat":3498,"ference":3499,"▁taking":3500,"rying":3501,"▁Sam":3502,"▁Richard":3503,"ittee":3504,"▁move":3505,"▁independ":3506,"▁signed":3507,"▁Alex":3508,"▁love":3509,"ilities":3510,"▁achie":3511,"▁California":3512,"▁better":3513,"etwork":3514,"▁pers":3515,"▁Union":3516,"itz":3517,"ump":3518,"aker":3519,"▁winds":3520,"▁ap":3521,"▁Govern":3522,"ecess":3523,"arily":3524,"▁God":3525,"▁inn":3526,"nel":3527,"▁Island":3528,"▁wat":3529,"▁enough":3530,"▁commerc":3531,"▁positive":3532,"▁Court":3533,"ears":3534,"▁hous":3535,"ume":3536,"▁according":3537,"anks":3538,"elled":3539,"▁spent":3540,"▁above":3541,"▁slow":3542,"▁going":3543,"▁pot":3544,"▁outside":3545,"▁Vict":3546,"▁Bra":3547,"▁Tom":3548,"▁films":3549,"▁Mill":3550,"ma":3551,"uation":3552,"apt":3553,"▁Award":3554,"▁told":3555,"▁Up":3556,"▁feel":3557,"berg":3558,"▁Cong":3559,"▁football":3560,"▁clear":3561,"▁previously":3562,"quare":3563,"▁states":3564,"▁Ac":3565,"▁mean":3566,"anding":3567,"▁nine":3568,"▁quest":3569,"▁Company":3570,"▁recording":3571,"▁Associ":3572,"alion":3573,"▁pur":3574,"▁subject":3575,"atin":3576,"het":3577,"usion":3578,"▁Art":3579,"▁failed":3580,"reng":3581,"▁assist":3582,"▁ey":3583,"▁required":3584,"▁come":3585,"ows":3586,"osing":3587,"▁45":3588,"▁prob":3589,"▁elements":3590,"▁Germany":3591,"van":3592,"ida":3593,"▁cru":3594,"▁Stud":3595,"▁lower":3596,"▁Mark":3597,"▁India":3598,"▁reviews":3599,"▁interview":3600,"edy":3601,"▁parts":3602,"▁phot":3603,"▁Gold":3604,"▁itself":3605,"▁Peter":3606,"ship":3607,"▁nar":3608,"▁think":3609,"▁Christian":3610,"nes":3611,"▁sil":3612,"ranch":3613,"▁directed":3614,"▁NY":3615,"▁abs":3616,"isl":3617,"ibility":3618,"▁despite":3619,"▁esp":3620,"▁flow":3621,"▁cred":3622,"▁contract":3623,"▁60":3624,"amer":3625,"▁185":3626,"oke":3627,"▁That":3628,"▁debut":3629,"▁Pat":3630,"▁£":3631,"▁?":3632,"▁Times":3633,"ready":3634,"erved":3635,"▁access":3636,"▁beginning":3637,"leb":3638,"▁groups":3639,"onna":3640,"oid":3641,"▁College":3642,"▁Cast":3643,"▁section":3644,"▁bi":3645,"▁viol":3646,"ability":3647,"▁UK":3648,"hester":3649,"▁whose":3650,"▁Sov":3651,"asons":3652,"▁Br":3653,"▁claimed":3654,"▁lines":3655,"▁transfer":3656,"▁Western":3657,"▁prevent":3658,"▁international":3659,"▁asked":3660,"▁streng":3661,"▁Dem":3662,"▁screen":3663,"mar":3664,"▁che":3665,"airs":3666,"▁give":3667,"onse":3668,"rief":3669,"▁beg":3670,"▁key":3671,"▁Mexic":3672,"▁Soviet":3673,"▁Do":3674,"▁unc":3675,"▁Span":3676,"▁additional":3677,"▁Film":3678,"▁future":3679,"▁Frank":3680,"▁fort":3681,"▁whom":3682,"▁Grand":3683,"▁league":3684,"▁op":3685,"▁Ben":3686,"▁poor":3687,"▁gold":3688,"▁Awards":3689,"lying":3690,"▁don":3691,"onst":3692,"▁introduced":3693,"▁prem":3694,"▁sea":3695,"▁evidence":3696,"ites":3697,"▁quickly":3698,"▁idea":3699,"ex":3700,"▁cal":3701,"▁center":3702,"▁already":3703,"▁32":3704,"▁Force":3705,"▁bridge":3706,"▁Soc":3707,"atory":3708,"eck":3709,"▁frequ":3710,"usp":3711,"▁Most":3712,"▁emb":3713,"▁occup":3714,"▁election":3715,"▁product":3716,"▁except":3717,"▁cycl":3718,"eum":3719,"▁Coun":3720,"back":3721,"eal":3722,"▁pil":3723,"▁deal":3724,"▁pen":3725,"▁arrived":3726,"irth":3727,"▁block":3728,"ecially":3729,"▁western":3730,"▁civil":3731,"aring":3732,"▁Britain":3733,"▁Rob":3734,"▁usually":3735,"▁radio":3736,"▁musical":3737,"▁St.":3738,"unt":3739,"▁Over":3740,"ully":3741,"▁Day":3742,"liam":3743,"ergy":3744,"▁Im":3745,"▁Pac":3746,"▁sometimes":3747,"▁female":3748,"▁decision":3749,"▁response":3750,"▁food":3751,"▁study":3752,"▁magazine":3753,"▁Later":3754,"▁money":3755,"▁Victor":3756,"▁especially":3757,"▁Hot":3758,"▁issue":3759,"▁Bur":3760,"asc":3761,"▁lab":3762,"▁Tra":3763,"▁flood":3764,"▁-":3765,"liament":3766,"▁liter":3767,"▁surface":3768,"▁env":3769,"gen":3770,"▁carried":3771,"rack":3772,"▁might":3773,"▁estimated":3774,"▁Rh":3775,"▁guitar":3776,"▁community":3777,"ena":3778,"aint":3779,"▁construct":3780,"▁Chic":3781,"iter":3782,"▁shows":3783,"▁remain":3784,"▁defeated":3785,"▁arran":3786,"▁eastern":3787,"igan":3788,"▁1999":3789,"▁remaining":3790,"aries":3791,"▁minor":3792,"▁Early":3793,"▁determ":3794,"inent":3795,"▁Mount":3796,"ha":3797,"▁wood":3798,"raw":3799,"▁approx":3800,"ession":3801,"▁larger":3802,"▁rap":3803,"ulf":3804,"▁becoming":3805,"▁Virginia":3806,"▁Inf":3807,"▁complete":3808,"▁police":3809,"▁36":3810,"rab":3811,"ror":3812,"porary":3813,"▁shoot":3814,"▁teams":3815,"▁entered":3816,"▁media":3817,"▁suggested":3818,"▁pressure":3819,"rics":3820,"▁latter":3821,"NA":3822,"▁Los":3823,"▁commercial":3824,"▁Just":3825,"ands":3826,"erve":3827,"▁anal":3828,"▁investig":3829,"▁surround":3830,"▁doc":3831,"▁lo":3832,"▁consider":3833,"▁market":3834,"▁brief":3835,"▁concern":3836,"ises":3837,"▁Second":3838,"▁students":3839,"▁bur":3840,"▁personal":3841,"inct":3842,"▁prison":3843,"ederal":3844,"▁If":3845,"▁Tex":3846,"▁Fle":3847,"▁acqu":3848,"▁discuss":3849,"▁certain":3850,"▁complet":3851,"alled":3852,"▁appointed":3853,"▁effects":3854,"▁Jackson":3855,"▁prior":3856,"▁der":3857,"▁summer":3858,"▁hop":3859,"▁sat":3860,"change":3861,"▁Cont":3862,"incip":3863,"▁episodes":3864,"▁tar":3865,"▁river":3866,"▁Flor":3867,"▁staff":3868,"enth":3869,"▁emer":3870,"▁size":3871,"lymp":3872,"▁destroyed":3873,"▁Louis":3874,"▁changes":3875,"ores":3876,"ulated":3877,"▁commission":3878,"▁rid":3879,"imate":3880,"▁scenes":3881,"▁winning":3882,"▁fleet":3883,"sy":3884,"▁limited":3885,"omm":3886,"iser":3887,"▁leaving":3888,"▁Spanish":3889,"▁deg":3890,"▁Olymp":3891,"tt":3892,"▁Club":3893,"▁pay":3894,"II":3895,"▁den":3896,"▁75":3897,"▁draw":3898,"ga":3899,"que":3900,"lo":3901,"su":3902,"rigade":3903,"▁self":3904,"▁provide":3905,"idents":3906,"▁rights":3907,"▁polic":3908,"▁trib":3909,"ties":3910,"ournal":3911,"▁type":3912,"ires":3913,"▁date":3914,"ension":3915,"rd":3916,"▁writer":3917,"▁fail":3918,"sen":3919,"▁Du":3920,"▁territ":3921,"ari":3922,"▁kil":3923,"▁transport":3924,"▁proposed":3925,"▁influence":3926,"▁overall":3927,"▁division":3928,"▁girl":3929,"oms":3930,"▁Kh":3931,"▁structure":3932,"▁Green":3933,"inese":3934,"▁Party":3935,"▁tax":3936,"▁equip":3937,"▁contro":3938,"▁184":3939,"▁script":3940,"iral":3941,"▁300":3942,"▁Ter":3943,"▁br":3944,"▁agreed":3945,"▁Association":3946,"▁intended":3947,"atives":3948,"▁anti":3949,"AA":3950,"▁jud":3951,"▁running":3952,"▁80":3953,"▁Pri":3954,"ift":3955,"ending":3956,"▁Edward":3957,"icles":3958,"▁Adm":3959,"▁daughter":3960,"▁deep":3961,"▁supported":3962,"▁wide":3963,"▁bow":3964,"▁purch":3965,"▁nearly":3966,"▁big":3967,"▁Chicago":3968,"▁broadcast":3969,"▁Many":3970,"imum":3971,"▁Chinese":3972,"▁establish":3973,"▁Oper":3974,"▁di":3975,"▁research":3976,"▁helped":3977,"▁movement":3978,"▁1998":3979,"▁Ro":3980,"▁married":3981,"▁awarded":3982,"ili":3983,"▁intens":3984,"▁multip":3985,"▁Ir":3986,"▁Council":3987,"▁Song":3988,"iles":3989,"atively":3990,"acing":3991,"▁favor":3992,"▁diss":3993,"▁create":3994,"irm":3995,"▁dark":3996,"▁Sal":3997,"▁susp":3998,"ny":3999,"pris":4000,"teen":4001,"omer":4002,"▁Kore":4003,"▁bird":4004,"▁Enter":4005,"▁stars":4006,"▁longer":4007,"▁language":4008,"che":4009,"▁cat":4010,"▁captured":4011,"▁planned":4012,"▁A.":4013,"▁higher":4014,"uz":4015,"▁increasing":4016,"mon":4017,"▁compared":4018,"▁Ev":4019,"▁fans":4020,"▁Serv":4021,"▁Emp":4022,"▁conclud":4023,"▁course":4024,"▁Super":4025,"▁changed":4026,"▁33":4027,"▁approximately":4028,"▁experience":4029,"▁feature":4030,"selves":4031,"▁living":4032,"▁Johnson":4033,"ounds":4034,"▁related":4035,"▁done":4036,"▁fifth":4037,"▁themselves":4038,"enty":4039,"▁History":4040,"abit":4041,"▁withd":4042,"▁Pacific":4043,"tained":4044,"bers":4045,"arent":4046,"▁producer":4047,"▁mostly":4048,"▁temper":4049,"▁tracks":4050,"isions":4051,"▁Back":4052,"▁Inter":4053,"▁space":4054,"▁operations":4055,"ss":4056,"anced":4057,"ij":4058,"can":4059,"▁dead":4060,"uth":4061,"▁Billboard":4062,"umn":4063,"▁App":4064,"▁thus":4065,"olic":4066,"▁Not":4067,"▁Bet":4068,"▁woman":4069,"▁syn":4070,"▁imm":4071,"▁remains":4072,"▁bring":4073,"▁Mont":4074,"thing":4075,"▁quarter":4076,"▁soldiers":4077,"imin":4078,"▁ult":4079,"▁our":4080,"▁natural":4081,"oint":4082,"vin":4083,"▁whether":4084,"▁weap":4085,"▁probably":4086,"▁face":4087,"▁dram":4088,"▁ran":4089,"▁concept":4090,"anded":4091,"rast":4092,"▁Final":4093,"▁Scot":4094,"bour":4095,"▁battles":4096,"▁buildings":4097,"▁copies":4098,"▁complex":4099,"▁react":4100,"▁1997":4101,"▁Sun":4102,"▁Since":4103,"▁forward":4104,"▁leader":4105,"▁depart":4106,"▁Kn":4107,"▁lyrics":4108,"▁extended":4109,"▁boy":4110,"▁voice":4111,"iring":4112,"itt":4113,"▁heav":4114,"▁board":4115,"▁chall":4116,"ospital":4117,"▁issued":4118,"▁Atlantic":4119,"▁37":4120,"ging":4121,"vey":4122,"▁suffered":4123,"▁really":4124,"riage":4125,"▁countries":4126,"rate":4127,"▁Fort":4128,"▁Lake":4129,"▁Big":4130,"urt":4131,"▁cm":4132,"▁Sever":4133,"▁Congress":4134,"▁Franc":4135,"▁includes":4136,"▁immediately":4137,"▁Love":4138,"▁Florida":4139,"▁Both":4140,"▁meth":4141,"▁goals":4142,"▁attend":4143,"▁70":4144,"▁Jim":4145,"▁Jew":4146,"▁capital":4147,"hood":4148,"▁private":4149,"▁mixed":4150,"▁manager":4151,"▁officers":4152,"iant":4153,"▁likely":4154,"▁cann":4155,"▁breed":4156,"▁Old":4157,"▁removed":4158,"▁mach":4159,"▁plant":4160,"ien":4161,"▁Sea":4162,"venue":4163,"bury":4164,"de":4165,"hold":4166,"▁distrib":4167,"▁celeb":4168,"▁Dist":4169,"▁increase":4170,"▁subsequently":4171,"▁Texas":4172,"▁initial":4173,"▁Queen":4174,"▁China":4175,"▁mount":4176,"▁Town":4177,"▁Pet":4178,"▁health":4179,"ections":4180,"ria":4181,"▁always":4182,"▁leave":4183,"▁plans":4184,"▁compan":4185,"▁status":4186,"order":4187,"▁focus":4188,"rial":4189,"▁Tor":4190,"▁location":4191,"▁via":4192,"▁Another":4193,"▁Trans":4194,"▁services":4195,"▁Law":4196,"▁network":4197,"▁visit":4198,"▁coin":4199,"▁Ant":4200,"ams":4201,"▁Camp":4202,"▁mur":4203,"▁problems":4204,"iation":4205,"▁offered":4206,"▁flag":4207,"▁colon":4208,"▁How":4209,"well":4210,"▁Lord":4211,"▁Earth":4212,"▁instr":4213,"▁terms":4214,"▁approach":4215,"aily":4216,"▁Ol":4217,"ously":4218,"etic":4219,"▁norm":4220,"▁Const":4221,"▁tons":4222,"ctor":4223,"▁village":4224,"ounted":4225,"▁model":4226,"▁fell":4227,"▁something":4228,"wer":4229,"ills":4230,"▁administ":4231,"▁Boy":4232,"▁tor":4233,"orning":4234,"▁Tur":4235,"▁counter":4236,"▁majority":4237,"▁sch":4238,"▁Wood":4239,"ironment":4240,"▁professional":4241,"▁183":4242,"▁Canadian":4243,"burg":4244,"▁Its":4245,"▁inters":4246,"adium":4247,"▁Africa":4248,"ibr":4249,"▁got":4250,"▁Rail":4251,"▁damaged":4252,"▁consist":4253,"aches":4254,"▁Mur":4255,"uries":4256,"▁cause":4257,"▁adop":4258,"▁meeting":4259,"▁job":4260,"▁appears":4261,"▁minute":4262,"▁Squadron":4263,"▁Center":4264,"▁Gre":4265,"▁ranked":4266,"▁lay":4267,"▁individual":4268,"ste":4269,"olk":4270,"▁Russian":4271,"cean":4272,"▁attacks":4273,"uf":4274,"▁composed":4275,"oes":4276,"ify":4277,"▁Highway":4278,"itect":4279,"▁Rad":4280,"▁revealed":4281,"▁flight":4282,"▁ang":4283,"▁plot":4284,"▁discovered":4285,"reak":4286,"▁raised":4287,"lor":4288,"umed":4289,"▁Mel":4290,"▁financ":4291,"▁Kent":4292,"▁Central":4293,"▁respectively":4294,"▁makes":4295,"▁Carol":4296,"pan":4297,"▁associated":4298,"▁Martin":4299,"▁Sir":4300,"▁1995":4301,"▁numerous":4302,"▁domin":4303,"▁III":4304,"▁anc":4305,"ault":4306,"▁Angeles":4307,"▁takes":4308,"▁altern":4309,"gar":4310,"▁needed":4311,"▁34":4312,"▁inspired":4313,"▁lived":4314,"▁Bow":4315,"▁coach":4316,"▁launched":4317,"oe":4318,"▁yet":4319,"▁amb":4320,"▁grand":4321,"ription":4322,"▁attacked":4323,"▁cand":4324,"▁pow":4325,"▁occurred":4326,"▁nature":4327,"▁gra":4328,"▁dig":4329,"▁attempted":4330,"uments":4331,"▁contains":4332,"▁veh":4333,"▁shown":4334,"▁DV":4335,"▁bene":4336,"▁hour":4337,"▁Miss":4338,"▁conditions":4339,"estival":4340,"down":4341,"▁moving":4342,"▁upper":4343,"uals":4344,"▁Des":4345,"imb":4346,"iest":4347,"▁38":4348,"ka":4349,"ken":4350,"▁TV":4351,"▁Year":4352,"▁Group":4353,"ective":4354,"▁collect":4355,"▁sales":4356,"▁Tour":4357,"joy":4358,"orce":4359,"aught":4360,"▁Del":4361,"urity":4362,"▁2016":4363,"▁issues":4364,"▁1996":4365,"▁yards":4366,"▁birth":4367,"▁exam":4368,"▁slight":4369,"▁Rev":4370,"▁Empire":4371,"izing":4372,"▁sal":4373,"▁whole":4374,"▁i":4375,"win":4376,"▁cer":4377,"▁information":4378,"uing":4379,"▁referred":4380,"▁farm":4381,"▁mom":4382,"oly":4383,"▁Out":4384,"▁box":4385,"▁critical":4386,"vert":4387,"▁Under":4388,"▁defeat":4389,"▁19th":4390,"▁sen":4391,"▁pit":4392,"▁selected":4393,"▁smaller":4394,"▁resulted":4395,"▁numbers":4396,"▁finally":4397,"reme":4398,"▁bad":4399,"▁incor":4400,"▁Penn":4401,"▁elected":4402,"▁Gar":4403,"▁stay":4404,"▁grant":4405,"▁qual":4406,"▁scient":4407,"▁active":4408,"▁singer":4409,"onic":4410,"▁princip":4411,"▁Italian":4412,"▁90":4413,"▁secret":4414,"kin":4415,"▁mission":4416,"itation":4417,"uated":4418,"▁Jose":4419,"▁1994":4420,"▁operation":4421,"andon":4422,"▁standard":4423,"enant":4424,"▁industry":4425,"▁ens":4426,"▁largely":4427,"▁assigned":4428,"▁sem":4429,"▁prec":4430,"▁link":4431,"use":4432,"ortun":4433,"▁thr":4434,"oura":4435,"▁legisl":4436,"▁saf":4437,"▁earned":4438,"▁commented":4439,"▁Corps":4440,"▁expected":4441,"▁J.":4442,"▁male":4443,"itude":4444,"iled":4445,"▁audience":4446,"▁DVD":4447,"oud":4448,"▁suggest":4449,"▁listed":4450,"▁Arm":4451,"▁roy":4452,"▁covered":4453,"▁Dis":4454,"▁gre":4455,"▁Crit":4456,"▁unable":4457,"▁purp":4458,"irection":4459,"▁sched":4460,"▁Michigan":4461,"▁traditional":4462,"▁heart":4463,"▁Cr":4464,"▁trade":4465,"▁artist":4466,"▁double":4467,"▁Viet":4468,"▁refused":4469,"▁education":4470,"ya":4471,"▁closed":4472,"▁newsp":4473,"▁friends":4474,"gr":4475,"▁aw":4476,"▁recover":4477,"▁underst":4478,"ounts":4479,"▁primary":4480,"agon":4481,"▁Pre":4482,"▁attention":4483,"▁method":4484,"hips":4485,"ogue":4486,"▁talk":4487,"ighter":4488,"tered":4489,"▁below":4490,"▁sister":4491,"▁kind":4492,"▁plat":4493,"ffic":4494,"▁Wales":4495,"▁officer":4496,"▁contem":4497,"▁reason":4498,"▁depression":4499,"▁performances":4500,"▁ability":4501,"▁enjoy":4502,"▁Mass":4503,"oo":4504,"▁meant":4505,"▁walk":4506,"▁declared":4507,"▁Nort":4508,"▁fighting":4509,"▁49":4510,"▁blood":4511,"ples":4512,"▁More":4513,"▁giving":4514,"▁commander":4515,"▁180":4516,"undred":4517,"▁word":4518,"isher":4519,"▁middle":4520,"▁letter":4521,"▁theat":4522,"▁compl":4523,"▁religious":4524,"▁Cath":4525,"▁max":4526,"▁hot":4527,"▁sett":4528,"▁Cle":4529,"▁books":4530,"▁Ox":4531,"▁rate":4532,"ona":4533,"▁Arch":4534,"▁matches":4535,"ils":4536,"▁names":4537,"▁Step":4538,"▁Care":4539,"▁records":4540,"▁Long":4541,"▁Acad":4542,"aped":4543,"▁Democr":4544,"▁constit":4545,"▁Bec":4546,"▁unit":4547,"▁Fer":4548,"▁produce":4549,"▁question":4550,"▁Test":4551,"▁Zeal":4552,"▁Team":4553,"▁centre":4554,"ounded":4555,"▁serious":4556,"▁competition":4557,"▁touch":4558,"ux":4559,"▁Major":4560,"▁ri":4561,"utch":4562,"antasy":4563,"odies":4564,"ims":4565,"▁disapp":4566,"▁vocals":4567,"ector":4568,"▁abandon":4569,"▁mention":4570,"osh":4571,"▁Minister":4572,"▁Several":4573,"▁rapid":4574,"iences":4575,"▁41":4576,"▁1992":4577,"road":4578,"irt":4579,"quar":4580,"icted":4581,"▁Wal":4582,"▁account":4583,"▁Cons":4584,"▁document":4585,"▁necess":4586,"▁kilomet":4587,"ares":4588,"▁mor":4589,"▁energy":4590,"ervation":4591,"echan":4592,"▁constructed":4593,"▁Fore":4594,"▁Kenn":4595,"▁1st":4596,"▁dut":4597,"ening":4598,"oses":4599,"▁theme":4600,"▁Zealand":4601,"▁ris":4602,"rug":4603,"▁stra":4604,"▁Fox":4605,"ishop":4606,"rier":4607,"ette":4608,"▁cas":4609,"▁Sum":4610,"▁highly":4611,"▁nearby":4612,"▁pick":4613,"▁Time":4614,"▁separate":4615,"yr":4616,"▁royal":4617,"▁positions":4618,"▁prep":4619,"ails":4620,"▁continue":4621,"▁Mexico":4622,"▁Er":4623,"▁drum":4624,"▁tur":4625,"▁Sar":4626,"▁effort":4627,"▁So":4628,"▁combat":4629,"vention":4630,"edic":4631,"▁chief":4632,"▁Bu":4633,"▁African":4634,"▁400":4635,"▁Haw":4636,"▁Matt":4637,"▁presented":4638,"▁annual":4639,"▁reduced":4640,"▁Ma":4641,"▁Four":4642,"▁controvers":4643,"ether":4644,"oper":4645,"emorial":4646,"ibly":4647,"ieut":4648,"▁directly":4649,"▁Chris":4650,"▁levels":4651,"▁cle":4652,"▁55":4653,"▁means":4654,"▁notes":4655,"▁neigh":4656,"cel":4657,"▁sevent":4658,"▁tried":4659,"▁attended":4660,"▁fast":4661,"▁practice":4662,"▁har":4663,"▁Wall":4664,"ita":4665,"▁forest":4666,"ado":4667,"▁compos":4668,"shire":4669,"▁Brad":4670,"▁edition":4671,"▁Dar":4672,"vement":4673,"▁Madonna":4674,"uit":4675,"▁train":4676,"▁Bob":4677,"▁nuc":4678,"acher":4679,"▁metal":4680,"▁Chart":4681,"▁accepted":4682,"arents":4683,"▁twenty":4684,"▁stating":4685,"▁20th":4686,"▁1993":4687,"▁Tre":4688,"osen":4689,"▁1991":4690,"▁watch":4691,"▁architect":4692,"▁movie":4693,"▁concert":4694,"▁text":4695,"▁advance":4696,"isation":4697,"▁repe":4698,"rical":4699,"▁candid":4700,"▁Hel":4701,"▁179":4702,"▁pair":4703,"track":4704,"stitute":4705,"▁Scotland":4706,"▁fr":4707,"▁portray":4708,"irmed":4709,"▁direction":4710,"ih":4711,"▁Jones":4712,"▁seem":4713,"▁dism":4714,"illery":4715,"eway":4716,"▁schools":4717,"▁legal":4718,"house":4719,"▁Their":4720,"ersey":4721,"lict":4722,"▁Ann":4723,"▁Infantry":4724,"▁thick":4725,"▁reject":4726,"fall":4727,"▁Manc":4728,"icip":4729,"wide":4730,"▁Department":4731,"inem":4732,"▁asp":4733,"ani":4734,"▁Cross":4735,"aging":4736,"▁horse":4737,"▁ge":4738,"▁+":4739,"light":4740,"▁purs":4741,"▁recomm":4742,"▁efforts":4743,"▁college":4744,"awn":4745,"▁managed":4746,"▁Dou":4747,"▁Go":4748,"▁marriage":4749,"▁Greek":4750,"▁ending":4751,"▁39":4752,"▁resulting":4753,"like":4754,"icient":4755,"hy":4756,"utions":4757,"▁responsible":4758,"ieutenant":4759,"▁Three":4760,"irit":4761,"▁wing":4762,"MS":4763,"▁showed":4764,"▁Lit":4765,"band":4766,"▁dropped":4767,"▁Post":4768,"▁inside":4769,"▁Mic":4770,"▁display":4771,"▁Bost":4772,"illed":4773,"▁cyclone":4774,"▁182":4775,"▁nation":4776,"▁Foot":4777,"▁environment":4778,"▁cases":4779,"▁kept":4780,"▁48":4781,"peror":4782,"▁Creek":4783,"▁Lad":4784,"▁Leg":4785,"▁morning":4786,"▁culture":4787,"▁rare":4788,"▁cust":4789,"▁meaning":4790,"olf":4791,"▁42":4792,"▁rat":4793,"▁begins":4794,"▁dom":4795,"▁incorpor":4796,"▁variety":4797,"▁Stone":4798,"▁houses":4799,"ceeded":4800,"▁subst":4801,"▁championship":4802,"pe":4803,"▁forms":4804,"rane":4805,"▁Service":4806,"pass":4807,"▁arrest":4808,"▁words":4809,"▁cerem":4810,"▁Hung":4811,"▁schol":4812,"cend":4813,"▁oil":4814,"▁inches":4815,"▁Williams":4816,"▁continues":4817,"▁marked":4818,"▁yard":4819,"▁B.":4820,"▁Records":4821,"▁spl":4822,"▁BC":4823,"▁Secret":4824,"▁181":4825,"▁perm":4826,"ini":4827,"▁News":4828,"ecting":4829,"ols":4830,"▁symb":4831,"gl":4832,"▁science":4833,"▁bank":4834,"gypt":4835,"▁uses":4836,"▁Sur":4837,"▁economic":4838,"▁Stan":4839,"writ":4840,"▁Tro":4841,"▁Hal":4842,"cle":4843,"thel":4844,"▁defend":4845,"▁Parliament":4846,"▁source":4847,"bed":4848,"▁Games":4849,"▁Fin":4850,"▁metres":4851,"ras":4852,"▁Tri":4853,"▁lear":4854,"▁hundred":4855,"ulations":4856,"▁quality":4857,"▁settle":4858,"▁Pan":4859,"▁1942":4860,"▁Book":4861,"▁starting":4862,"wh":4863,"▁C.":4864,"▁conducted":4865,"▁impact":4866,"thur":4867,"▁allowing":4868,"▁sides":4869,"▁specific":4870,"▁Egypt":4871,"▁strugg":4872,"▁Dr":4873,"▁beat":4874,"▁presence":4875,"▁Society":4876,"▁Oh":4877,"▁Sol":4878,"▁amount":4879,"een":4880,"▁Jer":4881,"▁suppl":4882,"sych":4883,"▁chap":4884,"▁exhib":4885,"▁viewers":4886,"▁du":4887,"▁dance":4888,"▁captain":4889,"ingu":4890,"▁ple":4891,"▁Ver":4892,"▁rule":4893,"▁univers":4894,"▁transferred":4895,"▁Lu":4896,"▁distinct":4897,"▁Southern":4898,"▁Prince":4899,"▁65":4900,"▁multiple":4901,"▁Stephen":4902,"▁Latin":4903,"ding":4904,"▁potential":4905,"▁Sat":4906,"▁Committee":4907,"▁Georg":4908,"▁foreign":4909,"▁contrast":4910,"▁47":4911,"▁enemy":4912,"▁Oxford":4913,"▁peaked":4914,"▁traffic":4915,"inet":4916,"ping":4917,"▁Spec":4918,"arian":4919,"▁Joseph":4920,"itiz":4921,"▁your":4922,"▁becomes":4923,"▁Sil":4924,"▁things":4925,"▁D.":4926,"▁mess":4927,"▁owned":4928,"▁founded":4929,"▁greater":4930,"▁portion":4931,"▁Admiral":4932,"▁Like":4933,"▁vocal":4934,"▁encoun":4935,"▁concluded":4936,"▁Camb":4937,"▁respond":4938,"▁Boston":4939,"▁attempts":4940,"kn":4941,"iance":4942,"▁opt":4943,"anes":4944,"▁relatively":4945,"rong":4946,"ym":4947,"▁federal":4948,"▁Class":4949,"very":4950,"ellig":4951,"ider":4952,"▁Manchester":4953,"▁scoring":4954,"▁Chief":4955,"▁property":4956,"▁primarily":4957,"▁stories":4958,"▁castle":4959,"▁demonst":4960,"▁Tw":4961,"▁financial":4962,"▁Harrison":4963,"ressive":4964,"▁actually":4965,"▁Captain":4966,"▁Jeff":4967,"▁Because":4968,"▁Tim":4969,"▁Form":4970,"ograp":4971,"▁Before":4972,"▁animals":4973,"▁lif":4974,"▁tourn":4975,"▁Battalion":4976,"▁Win":4977,"▁Vietn":4978,"▁Hurricane":4979,"▁observed":4980,"▁Swed":4981,"▁collection":4982,"▁opportun":4983,"▁Bat":4984,"▁46":4985,"▁Commission":4986,"fect":4987,"▁Den":4988,"▁52":4989,"istics":4990,"▁titled":4991,"▁featuring":4992,"▁weaken":4993,"▁strength":4994,"▁1944":4995,"▁Def":4996,"▁Bridge":4997,"▁writers":4998,"▁wa":4999,"▁inch":5000,"eds":5001,"▁write":5002,"▁journal":5003,"▁situation":5004,"▁Fred":5005,"umber":5006,"ees":5007,"▁wor":5008,"▁mechan":5009,"▁paid":5010,"▁spot":5011,"▁figure":5012,"▁distance":5013,"▁companies":5014,"stein":5015,"▁parents":5016,"▁64":5017,"▁premi":5018,"▁Ott":5019,"perial":5020,"▁Little":5021,"mas":5022,"rel":5023,"▁independent":5024,"▁mel":5025,"▁onto":5026,"▁divided":5027,"▁acting":5028,"▁43":5029,"▁actor":5030,"▁share":5031,"▁mind":5032,"▁slightly":5033,"aud":5034,"▁Produ":5035,"▁Paris":5036,"astic":5037,"▁Luc":5038,"▁Gra":5039,"▁Columb":5040,"▁Carl":5041,"▁Series":5042,"▁collabor":5043,"▁Life":5044,"▁target":5045,"lam":5046,"▁piece":5047,"▁torped":5048,"▁Mod":5049,"▁powerful":5050,"▁44":5051,"▁function":5052,"▁reform":5053,"anna":5054,"▁innings":5055,"▁concent":5056,"▁selling":5057,"▁Entertain":5058,"oration":5059,"thlet":5060,"▁era":5061,"▁rough":5062,"▁rating":5063,"▁broke":5064,"osaur":5065,"▁BBC":5066,"chest":5067,"▁Max":5068,"▁Pop":5069,"mond":5070,"istry":5071,"▁1990":5072,"▁Os":5073,"▁today":5074,"▁plays":5075,"ricket":5076,"▁Histor":5077,"uge":5078,"▁ultimately":5079,"▁lot":5080,"▁waters":5081,"▁trial":5082,"▁actions":5083,"▁cho":5084,"annel":5085,"▁Croat":5086,"▁square":5087,"▁maximum":5088,"rown":5089,"illa":5090,"ero":5091,"ada":5092,"▁tend":5093,"itan":5094,"load":5095,"▁interp":5096,"▁dise":5097,"▁completely":5098,"▁bound":5099,"▁sought":5100,"▁log":5101,"▁Academy":5102,"▁pilot":5103,"▁gar":5104,"▁blue":5105,"under":5106,"rupt":5107,"▁ess":5108,"▁Museum":5109,"oti":5110,"▁1945":5111,"mark":5112,"▁scale":5113,"▁S.":5114,"▁'m":5115,"▁Hor":5116,"▁1941":5117,"▁designated":5118,"▁society":5119,"alle":5120,"▁mainly":5121,"▁Line":5122,"▁struck":5123,"▁hus":5124,"ota":5125,"▁behav":5126,"▁150":5127,"▁Sk":5128,"▁conver":5129,"▁combined":5130,"▁officials":5131,"▁Saint":5132,"▁northeast":5133,"za":5134,"▁activity":5135,"▁policy":5136,"▁vess":5137,"▁influenced":5138,"▁transl":5139,"omy":5140,"▁Van":5141,"ylvan":5142,"cers":5143,"olved":5144,"▁search":5145,"▁say":5146,"ented":5147,"▁Way":5148,"▁wear":5149,"▁alongside":5150,"▁sout":5151,"▁Brigade":5152,"▁corn":5153,"AS":5154,"▁Italy":5155,"▁Entertainment":5156,"▁calling":5157,"racted":5158,"▁batter":5159,"iano":5160,"▁thous":5161,"▁seconds":5162,"▁Arab":5163,"while":5164,"▁Americans":5165,"▁Conf":5166,"▁Wind":5167,"▁seg":5168,"▁sources":5169,"▁naval":5170,"▁Lee":5171,"▁Ire":5172,"orses":5173,"▁background":5174,"▁winter":5175,"▁Regiment":5176,"▁crow":5177,"▁ice":5178,"ala":5179,"▁platform":5180,"▁news":5181,"▁thir":5182,"rative":5183,"▁webs":5184,"▁Tod":5185,"phy":5186,"quarters":5187,"udd":5188,"▁suc":5189,"▁recent":5190,"▁mem":5191,"aine":5192,"▁gained":5193,"▁nominated":5194,"TV":5195,"▁theory":5196,"▁Alb":5197,"▁artists":5198,"▁2nd":5199,"onn":5200,"▁Avenue":5201,"▁promoted":5202,"▁widely":5203,"ube":5204,"adel":5205,"▁confirmed":5206,"▁Ireland":5207,"HL":5208,"▁systems":5209,"▁passing":5210,"▁electric":5211,"▁reaching":5212,"▁proved":5213,"ibrary":5214,"▁invasion":5215,"▁Fleet":5216,"▁results":5217,"pson":5218,"▁conflict":5219,"▁Ell":5220,"▁greatest":5221,"▁subsequent":5222,"▁Good":5223,"▁explained":5224,"▁albums":5225,"▁iron":5226,"▁coming":5227,"▁peace":5228,"▁northwest":5229,"oured":5230,"town":5231,"▁ir":5232,"hew":5233,"▁content":5234,"▁Aut":5235,"▁sn":5236,"▁sixth":5237,"▁resist":5238,"▁1989":5239,"▁Ray":5240,"▁wick":5241,"▁charge":5242,"grad":5243,"▁county":5244,"AF":5245,"▁hero":5246,"▁1943":5247,"▁weather":5248,"▁shortly":5249,"▁Orig":5250,"▁sust":5251,"▁says":5252,"▁adj":5253,"aga":5254,"▁Bus":5255,"▁Sub":5256,"▁causing":5257,"▁Victoria":5258,"▁serve":5259,"▁versions":5260,"▁51":5261,"▁path":5262,"▁Sant":5263,"▁Lo":5264,"itness":5265,"aling":5266,"▁Tropical":5267,"▁expressed":5268,"▁border":5269,"▁seek":5270,"▁burn":5271,"▁reception":5272,"▁Charl":5273,"▁residents":5274,"iced":5275,"bon":5276,"▁Catholic":5277,"▁Work":5278,"▁emot":5279,"▁cities":5280,"▁Norm":5281,"▁chem":5282,"▁Add":5283,"▁soundtrack":5284,"▁M.":5285,"ansion":5286,"▁Valley":5287,"▁seasons":5288,"▁Nin":5289,"▁Mat":5290,"ips":5291,"infall":5292,"▁sense":5293,"▁Light":5294,"▁green":5295,"▁hospital":5296,"▁appearances":5297,"▁Dr.":5298,"▁sexual":5299,"ategory":5300,"tation":5301,"▁artillery":5302,"▁Di":5303,"▁pun":5304,"▁Middle":5305,"unction":5306,"▁identified":5307,"▁require":5308,"ighth":5309,"▁hands":5310,"▁physical":5311,"▁older":5312,"▁Though":5313,"▁Live":5314,"arden":5315,"▁dedic":5316,"▁tells":5317,"▁true":5318,"▁offer":5319,"▁pal":5320,"▁Ram":5321,"▁'re":5322,"▁Dun":5323,"▁Commun":5324,"ysis":5325,"▁kg":5326,"▁Liber":5327,"▁Through":5328,"▁Show":5329,"▁weapons":5330,"▁Ry":5331,"▁represented":5332,"ancy":5333,"▁ahead":5334,"▁gas":5335,"▁extra":5336,"▁Men":5337,"▁Football":5338,"aded":5339,"▁Top":5340,"▁Young":5341,"▁Vol":5342,"eption":5343,"▁heavily":5344,"▁image":5345,"ylvania":5346,"▁Jul":5347,"ronic":5348,"▁Kar":5349,"▁eas":5350,"▁1940":5351,"▁Tay":5352,"▁defense":5353,"▁Direct":5354,"▁1980s":5355,"lers":5356,"itable":5357,"▁challen":5358,"▁supp":5359,"▁Upon":5360,"▁avoid":5361,"▁agg":5362,"▁Bey":5363,"▁apparent":5364,"abeth":5365,"▁Dutch":5366,"▁Week":5367,"▁alone":5368,"▁student":5369,"▁spread":5370,"▁studies":5371,"known":5372,"▁officially":5373,"▁district":5374,"▁Ill":5375,"▁husband":5376,"▁bit":5377,"▁executive":5378,"▁Eliz":5379,"▁prominent":5380,"▁Fre":5381,"▁instit":5382,"▁consisted":5383,"▁organization":5384,"▁stone":5385,"essions":5386,"▁capture":5387,"▁debuted":5388,"▁send":5389,"▁Albert":5390,"▁injury":5391,"▁fired":5392,"▁Bond":5393,"bur":5394,"▁wild":5395,"ports":5396,"▁pattern":5397,"▁equipment":5398,"▁poet":5399,"▁pack":5400,"▁prepar":5401,"▁resc":5402,"▁instrument":5403,"▁Far":5404,"▁Rog":5405,"▁figures":5406,"▁Civil":5407,"▁Bre":5408,"▁surpris":5409,"▁exped":5410,"▁Dam":5411,"urban":5412,"ushed":5413,"▁argued":5414,"▁ox":5415,"▁aired":5416,"pool":5417,"▁eth":5418,"▁ring":5419,"▁pict":5420,"▁contemporary":5421,"▁growth":5422,"▁couple":5423,"▁doing":5424,"acity":5425,"▁returning":5426,"▁hun":5427,"▁graph":5428,"▁floor":5429,"rog":5430,"▁Homer":5431,"▁bud":5432,"▁magn":5433,"▁cert":5434,"▁1970s":5435,"▁pan":5436,"▁weight":5437,"▁laid":5438,"▁step":5439,"lines":5440,"▁Storm":5441,"▁Northern":5442,"▁earth":5443,"▁doub":5444,"▁pieces":5445,"▁matter":5446,"▁600":5447,"▁leaders":5448,"▁affected":5449,"▁shell":5450,"▁tun":5451,"▁habit":5452,"▁Gal":5453,"appen":5454,"▁Tem":5455,"▁rang":5456,"▁maintained":5457,"▁1960s":5458,"amber":5459,"▁here":5460,"inson":5461,"ias":5462,"▁communic":5463,"▁maintain":5464,"▁termin":5465,"▁Hard":5466,"ifying":5467,"▁propos":5468,"▁occasion":5469,"▁visited":5470,"emic":5471,"▁hyd":5472,"▁speech":5473,"▁Daniel":5474,"▁comes":5475,"▁rain":5476,"▁criticized":5477,"ental":5478,"▁Ha":5479,"▁activities":5480,"stone":5481,"ola":5482,"rat":5483,"▁exec":5484,"acement":5485,"▁Carolina":5486,"▁toward":5487,"▁reign":5488,"▁Jon":5489,"▁attract":5490,"▁emph":5491,"ockey":5492,"▁tournament":5493,"▁crowd":5494,"▁hall":5495,"ocked":5496,"▁Operation":5497,"uls":5498,"▁citiz":5499,"eed":5500,"orne":5501,"▁senior":5502,"▁trees":5503,"▁setting":5504,"▁singles":5505,"▁reference":5506,"▁drug":5507,"▁formation":5508,"▁53":5509,"elve":5510,"▁adapt":5511,"▁1987":5512,"▁medical":5513,"ivity":5514,"▁surre":5515,"▁murder":5516,"▁Marsh":5517,"▁System":5518,"ners":5519,"▁Scottish":5520,"uct":5521,"▁worldwide":5522,"▁Government":5523,"▁bul":5524,"▁Rom":5525,"▁trying":5526,"▁1988":5527,"▁Holly":5528,"▁District":5529,"▁territory":5530,"▁Field":5531,"estic":5532,"ruit":5533,"▁appl":5534,"▁negoti":5535,"▁Ocean":5536,"▁stations":5537,"▁Writ":5538,"▁machine":5539,"embly":5540,"▁Background":5541,"▁dog":5542,"▁rainfall":5543,"▁load":5544,"▁claims":5545,"▁displ":5546,"▁Governor":5547,"▁fellow":5548,"eller":5549,"▁doll":5550,"▁Home":5551,"▁Colon":5552,"▁god":5553,"▁85":5554,"▁birds":5555,"▁Fantasy":5556,"▁Dev":5557,"gian":5558,"▁Rod":5559,"▁historian":5560,"▁Guard":5561,"▁fully":5562,"▁Che":5563,"resh":5564,"▁accident":5565,"▁cell":5566,"uled":5567,"▁Penns":5568,"▁risk":5569,"ote":5570,"▁value":5571,"omers":5572,"▁therefore":5573,"▁split":5574,"bit":5575,"▁chosen":5576,"▁supply":5577,"▁guest":5578,"▁treatment":5579,"rael":5580,"▁Short":5581,"▁Duke":5582,"velopment":5583,"▁university":5584,"▁governor":5585,"▁Senate":5586,"▁sens":5587,"ampion":5588,"▁Beat":5589,"▁H.":5590,"▁dyn":5591,"▁twice":5592,"▁frequently":5593,"▁reports":5594,"▁ut":5595,"ayer":5596,"ordin":5597,"▁Lew":5598,"▁leaves":5599,"stitution":5600,"gu":5601,"▁remark":5602,"agn":5603,"▁Studios":5604,"▁faced":5605,"▁Girl":5606,"▁Polish":5607,"▁paper":5608,"aly":5609,"illy":5610,"izes":5611,"ledge":5612,"▁Eastern":5613,"▁walls":5614,"▁operated":5615,"▁label":5616,"▁Corn":5617,"▁MD":5618,"▁wounded":5619,"▁billion":5620,"▁follows":5621,"▁opin":5622,"▁Mean":5623,"▁surrounding":5624,"▁grew":5625,"azz":5626,"▁Bart":5627,"antly":5628,"ufact":5629,"▁planet":5630,"▁Andrew":5631,"▁Ros":5632,"▁swe":5633,"rect":5634,"▁contained":5635,"▁Christmas":5636,"▁Allied":5637,"orter":5638,"▁condition":5639,"▁manufact":5640,"onents":5641,"resp":5642,"antine":5643,"▁degree":5644,"rance":5645,"▁bal":5646,"gend":5647,"▁herself":5648,"min":5649,"isco":5650,"▁Jud":5651,"▁Night":5652,"▁accompan":5653,"▁color":5654,"▁horses":5655,"▁sle":5656,"▁passes":5657,"▁54":5658,"tar":5659,"ety":5660,"▁escape":5661,"▁typically":5662,"▁unf":5663,"▁reinf":5664,"mit":5665,"▁fuel":5666,"▁master":5667,"isters":5668,"▁simply":5669,"▁Wilson":5670,"▁brown":5671,"▁Taylor":5672,"fully":5673,"utation":5674,"▁element":5675,"▁Inst":5676,"▁orders":5677,"▁draft":5678,"▁lives":5679,"▁railway":5680,"▁dang":5681,"▁Pen":5682,"▁1986":5683,"▁casual":5684,"aming":5685,"▁editor":5686,"la":5687,"▁Head":5688,"▁arms":5689,"more":5690,"▁serving":5691,"▁camer":5692,"uous":5693,"▁phil":5694,"▁consecutive":5695,"▁95":5696,"▁97":5697,"▁moment":5698,"▁Elizabeth":5699,"▁fan":5700,"▁chose":5701,"▁Hum":5702,"▁nothing":5703,"▁authority":5704,"ographer":5705,"▁Joe":5706,"▁Alexander":5707,"▁cannot":5708,"▁vote":5709,"▁Each":5710,"▁56":5711,"ricult":5712,"▁workers":5713,"▁unknown":5714,"▁newly":5715,"▁native":5716,"▁Mike":5717,"▁Of":5718,"▁opposed":5719,"▁Gi":5720,"ucky":5721,"▁participated":5722,"isf":5723,"▁emphas":5724,"▁Jac":5725,"▁Les":5726,"ancing":5727,"▁experiment":5728,"rich":5729,"▁growing":5730,"▁WW":5731,"▁Pers":5732,"ager":5733,"▁attrib":5734,"▁psych":5735,"▁bass":5736,"▁website":5737,"▁Det":5738,"ef":5739,"▁losing":5740,"▁newspaper":5741,"▁fair":5742,"ype":5743,"▁producers":5744,"▁adopted":5745,"▁Land":5746,"▁advanced":5747,"▁benef":5748,"ilies":5749,"▁filming":5750,"▁Exp":5751,"▁offensive":5752,"▁Castle":5753,"▁heard":5754,"imens":5755,"▁Festival":5756,"then":5757,"▁severe":5758,"▁Sound":5759,"▁Ret":5760,"▁guard":5761,"▁spirit":5762,"▁Islands":5763,"▁Pennsylvania":5764,"▁Wat":5765,"▁opposition":5766,"▁squadron":5767,"▁feed":5768,"▁What":5769,"▁firm":5770,"▁sequence":5771,"▁extend":5772,"pton":5773,"▁actors":5774,"▁Hy":5775,"▁fiction":5776,"▁rear":5777,"▁basis":5778,"▁capacity":5779,"▁council":5780,"▁rom":5781,"orship":5782,"▁Card":5783,"▁weak":5784,"TC":5785,"▁ends":5786,"▁advant":5787,"▁abandoned":5788,"▁Gall":5789,"▁177":5790,"▁prin":5791,"▁Further":5792,"anda":5793,"▁ast":5794,"▁Reception":5795,"zy":5796,"uses":5797,"▁compar":5798,"isers":5799,"ura":5800,"▁Irish":5801,"aven":5802,"▁Blue":5803,"▁rival":5804,"▁evac":5805,"▁prompt":5806,"iated":5807,"▁honor":5808,"ables":5809,"▁SS":5810,"▁Tech":5811,"▁flying":5812,"▁enter":5813,"▁elev":5814,"▁Fam":5815,"▁kick":5816,"▁Mr.":5817,"▁Bab":5818,"lement":5819,"▁Spain":5820,"▁Harry":5821,"▁coal":5822,"▁bey":5823,"▁creating":5824,"▁deploy":5825,"ocated":5826,"▁filmed":5827,"▁launch":5828,"▁Jersey":5829,"▁homes":5830,"BA":5831,"▁poll":5832,"▁happen":5833,"▁regarded":5834,"▁eye":5835,"▁normal":5836,"▁incident":5837,"onc":5838,"▁Cat":5839,"▁76":5840,"▁expansion":5841,"▁individuals":5842,"▁P.":5843,"▁1990s":5844,"▁178":5845,"▁criticism":5846,"▁agreement":5847,"▁beyond":5848,"ounger":5849,"▁sail":5850,"▁Us":5851,"▁sports":5852,"eld":5853,"▁spect":5854,"▁delay":5855,"▁Square":5856,"▁Ca":5857,"iner":5858,"▁spring":5859,"▁failure":5860,"▁Coast":5861,"apers":5862,"▁chair":5863,"▁liber":5864,"▁Are":5865,"FA":5866,"▁strike":5867,"▁dismiss":5868,"▁famous":5869,"▁Bul":5870,"▁inte":5871,"▁boat":5872,"ima":5873,"▁Lind":5874,"▁vo":5875,"▁Ul":5876,"imet":5877,"▁Fe":5878,"▁measure":5879,"▁possibly":5880,"▁1939":5881,"▁Sand":5882,"▁historical":5883,"▁bodies":5884,"▁mob":5885,"▁'ve":5886,"▁progress":5887,"▁negative":5888,"▁CD":5889,"▁R.":5890,"▁contact":5891,"▁Public":5892,"▁achieved":5893,"ifications":5894,"▁roles":5895,"▁Broad":5896,"▁killing":5897,"▁believe":5898,"▁narrow":5899,"▁silver":5900,"▁End":5901,"▁Wild":5902,"▁Production":5903,"iny":5904,"ico":5905,"▁Elect":5906,"▁Cy":5907,"▁retired":5908,"▁Mul":5909,"▁Israel":5910,"▁ur":5911,"ienced":5912,"▁ideas":5913,"▁Ven":5914,"onent":5915,"▁torpedo":5916,"▁Ly":5917,"▁Institute":5918,"▁drive":5919,"▁pet":5920,"▁imag":5921,"mosp":5922,"▁personnel":5923,"iana":5924,"▁task":5925,"▁61":5926,"▁disease":5927,"▁1985":5928,"▁briefly":5929,"▁Doctor":5930,"▁Due":5931,"hol":5932,"▁armed":5933,"war":5934,"▁Arthur":5935,"▁diam":5936,"▁1968":5937,"▁66":5938,"▁Revolution":5939,"▁tower":5940,"imal":5941,"▁arrang":5942,"edom":5943,"▁effective":5944,"▁necessary":5945,"▁roads":5946,"kins":5947,"▁Meanwhile":5948,"▁kilometres":5949,"▁perman":5950,"ocks":5951,"▁applic":5952,"▁Liver":5953,"▁granted":5954,"▁repeated":5955,"▁infantry":5956,"▁tree":5957,"▁Ty":5958,"▁Ash":5959,"▁Cub":5960,"▁Republican":5961,"▁Sund":5962,"▁budget":5963,"▁receive":5964,"▁administration":5965,"▁column":5966,"▁Mir":5967,"▁rejected":5968,"▁inh":5969,"kes":5970,"▁Person":5971,"▁interchange":5972,"▁twelve":5973,"▁table":5974,"▁gross":5975,"enger":5976,"▁1970":5977,"▁Album":5978,"▁improved":5979,"▁leadership":5980,"▁Clark":5981,"▁turns":5982,"iments":5983,"avalry":5984,"▁extensive":5985,"▁straight":5986,"▁Ohio":5987,"worth":5988,"▁landing":5989,"▁yellow":5990,"▁paralle":5991,"ourney":5992,"aved":5993,"▁lands":5994,"▁data":5995,"▁crossing":5996,"▁seat":5997,"▁management":5998,"▁plants":5999,"▁purpose":6000,"och":6001,"zil":6002,"▁express":6003,"▁broken":6004,"▁Board":6005,"▁choice":6006,"▁mile":6007,"▁describes":6008,"▁expanded":6009,"ić":6010,"▁successfully":6011,"gers":6012,"▁defin":6013,"▁Bell":6014,"lusion":6015,"oln":6016,"▁intellig":6017,"▁solo":6018,"set":6019,"etball":6020,"▁franch":6021,"▁tru":6022,"▁Secretary":6023,"▁fought":6024,"oma":6025,"▁deliver":6026,"▁explos":6027,"adelph":6028,"▁learn":6029,"▁1984":6030,"uate":6031,"▁Ep":6032,"▁organized":6033,"▁didn":6034,"▁caught":6035,"▁animal":6036,"▁Prot":6037,"▁Burn":6038,"▁Sa":6039,"▁Hit":6040,"▁800":6041,"▁chor":6042,"▁roof":6043,"▁Philadelph":6044,"▁excl":6045,"▁vehicles":6046,"▁ancient":6047,"▁Bru":6048,"▁E.":6049,"▁suggests":6050,"erc":6051,"▁commissioned":6052,"▁Even":6053,"▁places":6054,"haps":6055,"ev":6056,"rif":6057,"▁IS":6058,"stream":6059,"▁acquired":6060,"▁Mov":6061,"▁glob":6062,"▁committee":6063,"▁drama":6064,"▁Never":6065,"▁57":6066,"▁Georgia":6067,"▁unsu":6068,"▁Cambridge":6069,"▁Sher":6070,"▁comedy":6071,"▁creation":6072,"▁types":6073,"▁article":6074,"▁gives":6075,"▁Lar":6076,"appy":6077,"▁seventh":6078,"ms":6079,"▁fat":6080,"▁120":6081,"▁Philadelphia":6082,"▁wave":6083,"▁prefer":6084,"▁soft":6085,"akers":6086,"zer":6087,"etts":6088,"▁headquarters":6089,"aith":6090,"ii":6091,"▁nuclear":6092,"▁W.":6093,"▁Also":6094,"▁authorities":6095,"▁genus":6096,"▁contain":6097,"▁Common":6098,"▁Rel":6099,"▁security":6100,"restling":6101,"▁determined":6102,"▁SR":6103,"▁1967":6104,"▁roll":6105,"▁trav":6106,"▁bott":6107,"▁islands":6108,"▁centuries":6109,"▁Addition":6110,"uan":6111,"▁beaut":6112,"▁commonly":6113,"rin":6114,"▁mentioned":6115,"ns":6116,"▁Russia":6117,"▁recently":6118,"attle":6119,"▁street":6120,"oted":6121,"▁looking":6122,"▁Wars":6123,"ipl":6124,"▁controlled":6125,"▁favour":6126,"▁1980":6127,"▁Mah":6128,"umes":6129,"▁62":6130,"amin":6131,"▁encoura":6132,"▁Among":6133,"▁Gil":6134,"oles":6135,"▁families":6136,"▁battalion":6137,"▁aim":6138,"▁Korean":6139,"▁household":6140,"▁Arg":6141,"▁acad":6142,"▁sand":6143,"arts":6144,"▁finds":6145,"outs":6146,"▁withdraw":6147,"▁advert":6148,"▁decre":6149,"▁sets":6150,"ishes":6151,"▁Nintend":6152,"uting":6153,"▁suppor":6154,"▁drop":6155,"▁standing":6156,"▁illust":6157,"▁Liverpool":6158,"gn":6159,"▁la":6160,"va":6161,"▁unp":6162,"▁Hay":6163,"▁Linc":6164,"▁Nintendo":6165,"▁Jenn":6166,"▁reflect":6167,"▁Chap":6168,"▁singing":6169,"▁deck":6170,"▁fish":6171,"▁ven":6172,"▁Ka":6173,"▁sac":6174,"▁dial":6175,"▁Bad":6176,"▁Prime":6177,"▁Earl":6178,"itled":6179,"▁Columbia":6180,"▁unique":6181,"▁Asia":6182,"▁height":6183,"▁protect":6184,"▁entirely":6185,"▁touchdown":6186,"▁containing":6187,"▁cultural":6188,"▁defence":6189,"▁finish":6190,"▁try":6191,"water":6192,"▁contributed":6193,"▁orchest":6194,"▁Singap":6195,"oh":6196,"▁themes":6197,"▁mist":6198,"▁Development":6199,"▁Lieutenant":6200,"▁Jewish":6201,"▁Lincoln":6202,"illing":6203,"▁provides":6204,"▁younger":6205,"▁58":6206,"▁flooding":6207,"▁1983":6208,"pping":6209,"▁Brazil":6210,"▁purchased":6211,"▁74":6212,"room":6213,"▁defensive":6214,".com":6215,"▁mis":6216,"▁Child":6217,"▁awards":6218,"▁atmosp":6219,"▁convers":6220,"▁arrival":6221,"▁titles":6222,"▁scheduled":6223,"inity":6224,"▁Hun":6225,"ulate":6226,"▁powers":6227,"▁Carey":6228,"▁Office":6229,"icial":6230,"▁resemb":6231,"▁1969":6232,"▁Francisco":6233,"▁thing":6234,"▁Singapore":6235,"respond":6236,"▁accompanied":6237,"▁Six":6238,"▁unus":6239,"rons":6240,"▁People":6241,"▁intensity":6242,"▁1964":6243,"▁Rol":6244,"▁expedition":6245,"▁perfect":6246,"▁existing":6247,"agan":6248,"wall":6249,"▁Pot":6250,"▁quite":6251,"wick":6252,"▁advantage":6253,"▁worth":6254,"▁72":6255,"▁locations":6256,"▁Hon":6257,"atures":6258,"▁interact":6259,"▁ceremony":6260,"▁dedicated":6261,"▁performing":6262,"▁request":6263,"▁bat":6264,"acted":6265,"▁Dark":6266,"▁philos":6267,"▁squad":6268,"▁extrem":6269,"▁computer":6270,"▁Bor":6271,"ker":6272,"▁Tam":6273,"▁1914":6274,"▁Turn":6275,"▁Lis":6276,"▁occupied":6277,"C.":6278,"▁store":6279,"▁Key":6280,"▁HMS":6281,"▁Disney":6282,"▁ty":6283,"laim":6284,"▁fresh":6285,"▁why":6286,"dy":6287,"▁mounted":6288,"▁carry":6289,"▁1918":6290,"Station":6291,"iling":6292,"▁boats":6293,"▁mouth":6294,"ashion":6295,"▁Order":6296,"▁1971":6297,"▁PlayStation":6298,"ta":6299,"▁1982":6300,"▁nob":6301,"▁currently":6302,"▁fix":6303,"usc":6304,"▁Kel":6305,"yles":6306,"▁Mot":6307,"▁closely":6308,"▁Die":6309,"rations":6310,"▁consists":6311,"▁Balt":6312,"fort":6313,"▁tim":6314,"▁Anderson":6315,"▁tail":6316,"▁1972":6317,"▁1966":6318,"▁Conference":6319,"▁1979":6320,"▁Lewis":6321,"▁59":6322,"▁Steve":6323,"mann":6324,"▁session":6325,"▁mic":6326,"▁lic":6327,"▁Brook":6328,"▁Miller":6329,"pper":6330,"▁cricket":6331,"hens":6332,"▁industrial":6333,"ava":6334,"▁Bas":6335,"▁simple":6336,"▁Radio":6337,"▁vari":6338,"▁egg":6339,"▁elimin":6340,"▁steam":6341,"▁cold":6342,"▁facilities":6343,"▁Byz":6344,"▁supporting":6345,"mouth":6346,"▁protection":6347,"▁Once":6348,"▁drawn":6349,"▁piano":6350,"ilton":6351,"▁Su":6352,"▁row":6353,"▁Grant":6354,"▁belong":6355,"▁Olympic":6356,"▁rise":6357,"▁defined":6358,"▁Conn":6359,"▁rated":6360,"▁submar":6361,"ware":6362,"▁Pu":6363,"▁trains":6364,"▁selection":6365,"▁Shak":6366,"▁Emperor":6367,"▁pros":6368,"▁Brian":6369,"▁regions":6370,"▁1965":6371,"▁structures":6372,"awa":6373,"▁aid":6374,"▁protected":6375,"▁Barb":6376,"otic":6377,"▁harm":6378,"▁calls":6379,"iro":6380,"▁focused":6381,"▁throw":6382,"▁#":6383,"▁hair":6384,"▁Railway":6385,"gest":6386,"▁motion":6387,"▁receiving":6388,"▁engaged":6389,"▁shooting":6390,"▁comic":6391,"verse":6392,"▁Press":6393,"ba":6394,"▁labor":6395,"▁Mu":6396,"▁NHL":6397,"▁adap":6398,"▁opportunity":6399,"▁lap":6400,"▁1975":6401,"ingly":6402,"▁Gib":6403,"▁correspond":6404,"▁99":6405,"iration":6406,"▁Gulf":6407,"▁3rd":6408,"▁analysis":6409,"▁strengthen":6410,"▁shark":6411,"▁motor":6412,"ua":6413,"osa":6414,"▁sport":6415,"▁Summer":6416,"▁notable":6417,"uzz":6418,"▁citizens":6419,"▁observ":6420,"▁experienced":6421,"▁mountain":6422,"▁conference":6423,"▁holding":6424,"▁Water":6425,"sey":6426,"▁Walter":6427,"▁Hollywood":6428,"▁Av":6429,"ults":6430,"▁southeast":6431,"▁eyes":6432,"▁Germans":6433,"▁Lab":6434,"▁providing":6435,"▁Inc":6436,"▁resident":6437,"▁Only":6438,"inth":6439,"olid":6440,"inger":6441,"▁Han":6442,"▁rapidly":6443,"▁Att":6444,"▁visual":6445,"▁Serb":6446,"▁18th":6447,"▁casualties":6448,"▁viewed":6449,"▁hired":6450,"ading":6451,"▁mut":6452,"▁1974":6453,"▁branch":6454,"FL":6455,"▁merch":6456,"▁charts":6457,"ifically":6458,"unior":6459,"▁Davis":6460,"opher":6461,"▁transform":6462,"▁alle":6463,"▁recognized":6464,"▁1973":6465,"▁Special":6466,"▁vac":6467,"▁rob":6468,"heim":6469,"▁63":6470,"▁Democratic":6471,"▁UN":6472,"▁77":6473,"▁sites":6474,"▁scholars":6475,"▁volume":6476,"iler":6477,"▁Review":6478,"burgh":6479,"▁steel":6480,"▁reaction":6481,"▁parallel":6482,"essed":6483,"▁73":6484,"▁gain":6485,"▁Rome":6486,"▁concer":6487,"▁Kir":6488,"▁L.":6489,"▁Between":6490,"▁Down":6491,"▁shared":6492,"▁prote":6493,"▁teach":6494,"▁hyp":6495,"▁Fall":6496,"▁edge":6497,"▁cart":6498,"▁publication":6499,"▁Jean":6500,"▁1976":6501,"▁moder":6502,"▁temperature":6503,"▁digital":6504,"▁economy":6505,"▁developing":6506,"roll":6507,"▁Ten":6508,"▁intersection":6509,"▁heads":6510,"▁Bank":6511,"▁cool":6512,"▁Prov":6513,"▁Naz":6514,"standing":6515,"box":6516,"▁Nap":6517,"friend":6518,"▁symbol":6519,"▁secondary":6520,"zen":6521,"▁approved":6522,"yer":6523,"▁Gord":6524,"▁Lady":6525,"▁losses":6526,"▁chance":6527,"▁Princ":6528,"ali":6529,"▁von":6530,"án":6531,"▁hydro":6532,"▁rac":6533,"omew":6534,"itors":6535,"▁Mas":6536,"▁Ob":6537,"ologist":6538,"▁witness":6539,"▁prepared":6540,"▁contest":6541,"▁enl":6542,"▁substant":6543,"oncé":6544,"▁belief":6545,"▁Daily":6546,"iful":6547,"rence":6548,"rant":6549,"s.":6550,"▁significantly":6551,"▁myth":6552,"▁Women":6553,"ographic":6554,"▁letters":6555,"▁Philipp":6556,"▁Musl":6557,"▁sort":6558,"▁bands":6559,"▁Syd":6560,"onder":6561,"▁domestic":6562,"achus":6563,"▁card":6564,"asty":6565,"▁save":6566,"▁instruct":6567,"▁250":6568,"▁descend":6569,"▁unsuccess":6570,"▁knew":6571,"▁southwest":6572,"▁Command":6573,"▁67":6574,"▁franchise":6575,"▁tank":6576,"▁literature":6577,"unte":6578,"ryst":6579,"▁goes":6580,"▁roughly":6581,"eral":6582,"aka":6583,"break":6584,"▁Main":6585,"▁painting":6586,"▁semi":6587,"▁Beyoncé":6588,"▁actress":6589,"▁assault":6590,"▁technology":6591,"▁Colonel":6592,"ora":6593,"enc":6594,"▁urban":6595,"theless":6596,"▁pitch":6597,"▁advent":6598,"range":6599,"▁anything":6600,"▁projects":6601,"▁cab":6602,"▁core":6603,"▁Indust":6604,"▁Nick":6605,"▁brothers":6606,"▁cars":6607,"▁Bern":6608,"▁Point":6609,"▁Plan":6610,"▁adult":6611,"▁resistance":6612,"▁lb":6613,"▁shape":6614,"▁exact":6615,"▁gameplay":6616,"ella":6617,"ients":6618,"▁storyline":6619,"▁Supreme":6620,"▁employed":6621,"▁Kentucky":6622,"▁IV":6623,"ropri":6624,"ads":6625,"iminal":6626,"▁injured":6627,"ulpt":6628,"▁Var":6629,"▁reasons":6630,"▁rules":6631,"▁Whit":6632,"▁Independ":6633,"▁daily":6634,"▁agent":6635,"▁1946":6636,"▁Station":6637,"▁Spring":6638,"▁ign":6639,"▁shall":6640,"▁1981":6641,"▁Fair":6642,"▁watched":6643,"▁82":6644,"▁96":6645,"▁popularity":6646,"ira":6647,"▁fit":6648,"▁Ball":6649,"▁isol":6650,"▁68":6651,"agement":6652,"onym":6653,"ati":6654,"▁composition":6655,"▁perhaps":6656,"▁adding":6657,"▁declined":6658,"▁renamed":6659,"▁−":6660,"▁Cur":6661,"▁getting":6662,"▁Ross":6663,"▁enjoyed":6664,"▁1950s":6665,"▁compris":6666,"▁opinion":6667,"▁Theat":6668,"oz":6669,"▁calc":6670,"▁Norway":6671,"▁poem":6672,"omic":6673,"▁nor":6674,"▁shaped":6675,"▁reputation":6676,"amm":6677,"▁undert":6678,"▁connected":6679,"▁Base":6680,"▁1917":6681,"inking":6682,"▁converted":6683,"▁lov":6684,"▁Mos":6685,"▁estate":6686,"▁museum":6687,"▁views":6688,"▁Massachus":6689,"bound":6690,"▁dry":6691,"▁drew":6692,"▁rend":6693,"▁stages":6694,"▁Olympics":6695,"▁Prem":6696,"oir":6697,"▁Imp":6698,"▁retire":6699,"ceived":6700,"▁regarding":6701,"▁Golden":6702,"▁Dream":6703,"▁Massachusetts":6704,"gal":6705,"osl":6706,"▁distingu":6707,"▁Walk":6708,"iform":6709,"▁sun":6710,"▁agricult":6711,"▁headed":6712,"▁allows":6713,"rets":6714,"han":6715,"vest":6716,"▁bed":6717,"▁nick":6718,"▁87":6719,"▁Sel":6720,"▁alternative":6721,"▁journey":6722,"ules":6723,"▁missing":6724,"igg":6725,"▁Vi":6726,"▁depth":6727,"▁cited":6728,"▁turning":6729,"▁Abb":6730,"▁Sus":6731,"▁increasingly":6732,"athan":6733,"ato":6734,"eper":6735,"ko":6736,"▁F.":6737,"▁Let":6738,"▁approached":6739,"osis":6740,"▁planning":6741,"▁Ron":6742,"▁160":6743,"▁responded":6744,"▁Airport":6745,"▁stadium":6746,"▁Hart":6747,"▁knowledge":6748,"▁1948":6749,"▁overl":6750,"▁exerc":6751,"ilding":6752,"eman":6753,"▁wealth":6754,"▁easily":6755,"▁700":6756,"▁fashion":6757,"▁1960":6758,"olt":6759,"▁escort":6760,"▁constitution":6761,"▁collected":6762,"▁equal":6763,"▁About":6764,"▁succeeded":6765,"▁rebu":6766,"psons":6767,"▁introduction":6768,"▁Ken":6769,"▁cells":6770,"unicip":6771,"▁sustained":6772,"mod":6773,"▁flu":6774,"▁trip":6775,"▁existence":6776,"ignment":6777,"▁Bal":6778,"▁pul":6779,"▁occas":6780,"▁Imperial":6781,"▁safety":6782,"▁auth":6783,"▁learned":6784,"▁Simpsons":6785,"▁tall":6786,"▁Run":6787,"▁69":6788,"wise":6789,"▁operating":6790,"▁Init":6791,"▁models":6792,"▁colle":6793,"▁1978":6794,"hi":6795,"▁carrying":6796,"rett":6797,"▁promotion":6798,"mitted":6799,"▁youth":6800,"▁Vietnam":6801,"▁78":6802,"uration":6803,"▁showing":6804,"▁baseball":6805,"▁limit":6806,"engers":6807,"▁McG":6808,"▁buried":6809,"▁Songs":6810,"iger":6811,"▁exchange":6812,"eg":6813,"onia":6814,"▁91":6815,"▁weakened":6816,"come":6817,"leton":6818,"▁paint":6819,"▁credited":6820,"▁AD":6821,"▁seems":6822,"▁Loc":6823,"▁1915":6824,"▁humans":6825,"▁Cape":6826,"▁improve":6827,"▁depend":6828,"▁impl":6829,"state":6830,"▁designs":6831,"▁arranged":6832,"▁freeway":6833,"▁Jay":6834,"▁joint":6835,"▁Shortly":6836,"▁athlet":6837,"▁landfall":6838,"▁rhy":6839,"▁producing":6840,"▁shel":6841,"▁earliest":6842,"▁Sydney":6843,"▁proceed":6844,"▁Ottoman":6845,"▁van":6846,"▁flat":6847,"inary":6848,"eler":6849,"oli":6850,"istan":6851,"▁note":6852,"▁sculpt":6853,"▁lasted":6854,"▁settlement":6855,"acts":6856,"▁retained":6857,"▁Who":6858,"▁Pict":6859,"▁ton":6860,"▁1977":6861,"▁Naval":6862,"▁Moore":6863,"▁1950":6864,"▁Poland":6865,"▁acres":6866,"▁description":6867,"put":6868,"▁94":6869,"▁Roy":6870,"▁Rem":6871,"▁brand":6872,"issance":6873,"▁Maryland":6874,"AR":6875,"▁Cra":6876,"rell":6877,"ivered":6878,"▁reserve":6879,"▁MTV":6880,"▁Stew":6881,"ivalent":6882,"bell":6883,"▁laws":6884,"▁appoint":6885,"▁assistant":6886,"▁replace":6887,"▁consc":6888,"ources":6889,"▁patrol":6890,"▁install":6891,"▁81":6892,"▁genre":6893,"insula":6894,"▁playoff":6895,"▁programs":6896,"ader":6897,"▁virt":6898,"▁catch":6899,"▁coastal":6900,"▁violence":6901,"▁98":6902,"▁entrance":6903,"▁statement":6904,"▁hits":6905,"▁1963":6906,"▁Jes":6907,"▁applied":6908,"▁Arts":6909,"▁synt":6910,"▁consequ":6911,"▁neut":6912,"iege":6913,"▁trust":6914,"▁scientific":6915,"othes":6916,"▁tick":6917,"▁Pass":6918,"avig":6919,"pet":6920,"math":6921,"▁Rid":6922,"▁exclus":6923,"tical":6924,"▁Rhodes":6925,"▁battery":6926,"▁delivered":6927,"▁Greg":6928,"▁1916":6929,"▁sections":6930,"▁Fire":6931,"▁uns":6932,"▁candidate":6933,"▁indicated":6934,"▁stopped":6935,"time":6936,"▁towns":6937,"▁gradually":6938,"▁tact":6939,"▁items":6940,"izations":6941,"▁politics":6942,"lan":6943,"▁ban":6944,"▁Bowl":6945,"▁Edu":6946,"▁Ari":6947,"lee":6948,"eke":6949,"oard":6950,"▁bask":6951,"▁supplies":6952,"▁distribution":6953,"▁filled":6954,"▁IG":6955,"▁details":6956,"▁independence":6957,"▁Confeder":6958,"eless":6959,"AT":6960,"ela":6961,"▁select":6962,"▁71":6963,"▁stream":6964,"▁combination":6965,"▁Jan":6966,"▁ways":6967,"▁emp":6968,"ushing":6969,"▁Mulder":6970,"▁cinem":6971,"▁Bon":6972,"▁glass":6973,"▁Gordon":6974,"▁engines":6975,"▁parties":6976,"▁camera":6977,"reets":6978,"▁Stadium":6979,"▁appeal":6980,"phoon":6981,"▁Band":6982,"ender":6983,"▁prisoners":6984,"▁1919":6985,"▁1962":6986,"emies":6987,"▁89":6988,"▁register":6989,"▁campus":6990,"▁AC":6991,"▁Well":6992,"▁secure":6993,"▁entitled":6994,"▁extremely":6995,"iversary":6996,"▁acts":6997,"▁wars":6998,"▁mig":6999,"▁regiment":7000,"rec":7001,"ropol":7002,"▁finding":7003,"▁Theatre":7004,"ador":7005,"▁Ra":7006,"▁evening":7007,"▁investigation":7008,"▁tal":7009,"▁online":7010,"▁Staff":7011,"▁decade":7012,"poration":7013,"▁winner":7014,"▁Prof":7015,"inois":7016,"▁Univers":7017,"▁adapted":7018,"▁1938":7019,"iques":7020,"▁Cop":7021,"▁Kim":7022,"▁bought":7023,"▁arc":7024,"acter":7025,"▁88":7026,"▁survived":7027,"▁knots":7028,"ja":7029,"▁somew":7030,"▁threatened":7031,"▁deaths":7032,"▁ruled":7033,"▁message":7034,"▁writes":7035,"ashed":7036,"▁routes":7037,"▁Anth":7038,"iat":7039,"▁Bir":7040,"▁consum":7041,"▁studied":7042,"▁relief":7043,"▁religion":7044,"▁address":7045,"▁Justice":7046,"▁Vill":7047,"▁proposal":7048,"▁fear":7049,"▁download":7050,"▁Instead":7051,"▁Nic":7052,"▁tanks":7053,"ano":7054,"▁voted":7055,"▁reduce":7056,"▁Po":7057,"▁specifically":7058,"met":7059,"ighters":7060,"▁crown":7061,"▁males":7062,"ieval":7063,"▁phase":7064,"▁Memorial":7065,"▁revolution":7066,"BS":7067,"▁spons":7068,"bourne":7069,"▁fict":7070,"▁kingdom":7071,"▁Age":7072,"▁recalled":7073,"▁portrayed":7074,"▁ec":7075,"▁controversy":7076,"BN":7077,"▁duty":7078,"▁implement":7079,"mun":7080,"▁Circ":7081,"ctions":7082,"▁Here":7083,"hat":7084,"▁emerg":7085,"▁soul":7086,"▁Ast":7087,"adow":7088,"apes":7089,"▁ble":7090,"▁causes":7091,"▁everything":7092,"▁bottom":7093,"▁stret":7094,"▁capable":7095,"ervative":7096,"chers":7097,"▁convin":7098,"▁175":7099,"ician":7100,"▁references":7101,"▁T.":7102,"▁1956":7103,"▁sell":7104,"▁Kong":7105,"▁importance":7106,"▁1930s":7107,"aug":7108,"▁ago":7109,"▁et":7110,"▁breeding":7111,"▁Tony":7112,"▁offers":7113,"▁Coll":7114,"▁teacher":7115,"ridges":7116,"▁McK":7117,"▁crossed":7118,"▁arrested":7119,"▁Director":7120,"▁Singles":7121,"▁79":7122,"▁meters":7123,"▁entry":7124,"entially":7125,"▁sufficient":7126,"▁Nel":7127,"bro":7128,"▁Power":7129,"▁Ur":7130,"▁Id":7131,"senal":7132,"▁climb":7133,"▁Od":7134,"▁Moon":7135,"▁admitted":7136,"▁internal":7137,"▁opera":7138,"arp":7139,"▁Ok":7140,"▁Adams":7141,"▁corner":7142,"▁nomination":7143,"▁mort":7144,"▁owner":7145,"uro":7146,"▁Dougl":7147,"bar":7148,"▁Jane":7149,"▁Alan":7150,"▁equipped":7151,"▁installed":7152,"▁overse":7153,"▁products":7154,"▁concerns":7155,"▁copy":7156,"▁bor":7157,"▁1936":7158,"▁Jord":7159,"▁starts":7160,"ructure":7161,"▁IGN":7162,"▁Alf":7163,"▁Beach":7164,"▁convoy":7165,"▁Critical":7166,"▁preced":7167,"wich":7168,"andy":7169,"▁conqu":7170,"▁autom":7171,"▁Hamilton":7172,"ranean":7173,"hr":7174,"▁invited":7175,"▁snow":7176,"▁130":7177,"▁tell":7178,"▁upgrad":7179,"aki":7180,"▁Engine":7181,"▁ones":7182,"▁unl":7183,"ansas":7184,"▁principal":7185,"▁shut":7186,"▁crime":7187,"▁Simon":7188,"▁UTC":7189,"▁interested":7190,"▁retreat":7191,"▁remainder":7192,"▁recommended":7193,"▁Int":7194,"▁Gram":7195,"▁Maria":7196,"▁Plot":7197,"espread":7198,"▁alt":7199,"▁acid":7200,"▁stock":7201,"▁Your":7202,"▁fly":7203,"▁actual":7204,"▁Adam":7205,"▁92":7206,"ca":7207,"▁vent":7208,"▁93":7209,"▁VII":7210,"▁medal":7211,"▁1920":7212,"▁solid":7213,"▁Track":7214,"▁charged":7215,"▁apart":7216,"▁door":7217,"▁consisting":7218,"▁Forest":7219,"ilation":7220,"▁Death":7221,"▁1961":7222,"osaurus":7223,"iy":7224,"mb":7225,"vis":7226,"▁funds":7227,"▁Indones":7228,"▁promote":7229,"▁price":7230,"▁milit":7231,"▁objects":7232,"▁84":7233,"▁Bos":7234,"▁considerable":7235,"▁Cart":7236,"▁gall":7237,"▁Video":7238,"▁composer":7239,"▁dates":7240,"aked":7241,"▁females":7242,"▁NBA":7243,"▁FA":7244,"▁page":7245,"▁Found":7246,"▁Prog":7247,"▁WWE":7248,"erted":7249,"▁Gen":7250,"▁Nether":7251,"▁grounds":7252,"▁1953":7253,"hus":7254,"▁poly":7255,"▁Today":7256,"▁blow":7257,"iller":7258,"▁duties":7259,"rete":7260,"▁extension":7261,"▁typical":7262,"▁cong":7263,"▁Military":7264,"▁Transport":7265,"▁Hitler":7266,"▁Gun":7267,"▁correct":7268,"▁rural":7269,"▁someone":7270,"cks":7271,"▁Kennedy":7272,"BI":7273,"▁eighth":7274,"▁evolution":7275,"▁Sunday":7276,"▁images":7277,"▁decades":7278,"▁Project":7279,"▁Howard":7280,"▁Marc":7281,"▁sole":7282,"▁zone":7283,"▁penal":7284,"vements":7285,"▁'d":7286,"▁driving":7287,"▁Indiana":7288,"▁spin":7289,"▁hotel":7290,"king":7291,"osite":7292,"▁Pit":7293,"▁identity":7294,"▁Ta":7295,"▁lane":7296,"▁1930":7297,"▁reading":7298,"AAF":7299,"▁challenge":7300,"▁Norwe":7301,"hetic":7302,"▁occurs":7303,"▁Hou":7304,"add":7305,"▁remix":7306,"▁manner":7307,"▁Leon":7308,"▁subs":7309,"▁permanent":7310,"▁frag":7311,"▁Scully":7312,"▁brigade":7313,"▁ham":7314,"▁Five":7315,"▁17th":7316,"▁aspects":7317,"▁dated":7318,"▁skin":7319,"▁Tar":7320,"▁Bry":7321,"▁1947":7322,"▁tow":7323,"▁aer":7324,"▁volcan":7325,"▁Kat":7326,"▁Cult":7327,"▁noting":7328,"▁slowly":7329,"▁1958":7330,"regon":7331,"▁colour":7332,"▁armor":7333,"▁Brist":7334,"▁vir":7335,"▁posted":7336,"▁Portug":7337,"▁restaur":7338,"ez":7339,"▁Gill":7340,"ubb":7341,"▁vessels":7342,"ensus":7343,"▁Mountain":7344,"after":7345,"ione":7346,"▁Scient":7347,"▁speak":7348,"▁Turk":7349,"▁Pear":7350,"▁clean":7351,"iley":7352,"▁86":7353,"▁supporters":7354,"aware":7355,"▁Ba":7356,"ivals":7357,"▁Drag":7358,"cknow":7359,"▁involving":7360,"▁entering":7361,"▁describing":7362,"▁1957":7363,"▁Ak":7364,"▁bra":7365,"▁Assembly":7366,"▁enemies":7367,"▁Research":7368,"▁Rose":7369,"▁G.":7370,"▁Science":7371,"veland":7372,"▁department":7373,"nic":7374,"▁Space":7375,"▁equivalent":7376,"▁obtained":7377,"▁1937":7378,"▁Mr":7379,"▁Constitution":7380,"▁debate":7381,"▁memorial":7382,"▁dress":7383,"▁accur":7384,"▁classes":7385,"▁Ryan":7386,"▁settled":7387,"orney":7388,"▁oldest":7389,"▁Hug":7390,"▁Disc":7391,"▁din":7392,"risis":7393,"▁purchase":7394,"▁widespread":7395,"▁Magazine":7396,"fl":7397,"▁songwrit":7398,"▁basic":7399,"▁tele":7400,"▁Rolling":7401,"▁decline":7402,"▁Argent":7403,"▁Ira":7404,"agues":7405,"▁parliament":7406,"▁Pier":7407,"▁Oregon":7408,"▁attached":7409,"▁income":7410,"▁decor":7411,"erto":7412,"▁faith":7413,"▁concerned":7414,"▁Lenn":7415,"▁departure":7416,"heastern":7417,"▁formal":7418,"▁folk":7419,"▁connection":7420,"▁Cleveland":7421,"▁Illinois":7422,"▁pup":7423,"▁accused":7424,"▁Throughout":7425,"cation":7426,"▁recognition":7427,"▁Douglas":7428,"ophy":7429,"▁certified":7430,"▁integ":7431,"hered":7432,"▁nest":7433,"▁deleg":7434,"▁<":7435,"▁ha":7436,"▁Now":7437,"▁4th":7438,"▁outer":7439,"▁disturb":7440,"rates":7441,"▁sequel":7442,"▁derived":7443,"▁Weekly":7444,"▁Rele":7445,"icit":7446,"▁committed":7447,"▁Sav":7448,"iot":7449,"▁110":7450,"▁mode":7451,"aret":7452,"▁Stand":7453,"▁acknow":7454,"▁assumed":7455,"▁1959":7456,"▁Andy":7457,"ooth":7458,"▁swim":7459,"▁hosted":7460,"▁wearing":7461,"▁”":7462,"▁Family":7463,"▁Stanley":7464,"▁Jordan":7465,"western":7466,"▁wed":7467,"▁Freder":7468,"▁segment":7469,"▁foss":7470,"▁returns":7471,"wan":7472,"▁torn":7473,"▁hip":7474,"▁charges":7475,"▁Feder":7476,"▁survey":7477,"ekend":7478,"▁champion":7479,"▁acclaim":7480,"▁temple":7481,"▁hang":7482,"▁Mediter":7483,"▁Third":7484,"▁literary":7485,"▁Arsenal":7486,"▁flo":7487,"▁valley":7488,"▁Media":7489,"▁Roger":7490,"▁Dal":7491,"▁denied":7492,"▁Low":7493,"▁terminus":7494,"▁fine":7495,"▁populations":7496,"▁transition":7497,"▁Treat":7498,"▁Tenn":7499,"▁Philip":7500,"▁Kevin":7501,"▁sessions":7502,"▁Recording":7503,"agonist":7504,"▁Mediterranean":7505,"▁Beatles":7506,"▁regional":7507,"▁Bruce":7508,"▁canc":7509,"▁circum":7510,"▁thousands":7511,"▁supposed":7512,"▁1955":7513,"▁Es":7514,"▁1954":7515,"▁“":7516,"▁warm":7517,"▁ISBN":7518,"▁Norwegian":7519,"▁Bristol":7520,"▁demand":7521,"▁intelligence":7522,"▁downtown":7523,"▁ans":7524,"▁shots":7525,"iva":7526,"▁Az":7527,"▁commit":7528,"▁strongly":7529,"RA":7530,"▁Rain":7531,"▁wickets":7532,"▁Dig":7533,"udden":7534,"hedral":7535,"▁sailed":7536,"▁Der":7537,"▁Federal":7538,"▁passengers":7539,"▁circulation":7540,"heme":7541,"emed":7542,"▁Bush":7543,"▁possibility":7544,"▁generation":7545,"▁hill":7546,"▁freedom":7547,"organ":7548,"▁cloud":7549,"▁fictional":7550,"achel":7551,"▁thirty":7552,"▁animated":7553,"▁hope":7554,"▁Ho":7555,"vens":7556,"▁Channel":7557,"rage":7558,"▁replacement":7559,"IA":7560,"▁commanded":7561,"eing":7562,"▁Mexican":7563,"▁rich":7564,"▁begun":7565,"▁assistance":7566,"ito":7567,"▁behavior":7568,"▁Bol":7569,"▁minister":7570,"▁missions":7571,"▁Korea":7572,"▁destruction":7573,"▁Web":7574,"▁fruit":7575,"▁crash":7576,"▁missed":7577,"▁criminal":7578,"atinum":7579,"borne":7580,"mes":7581,"▁×":7582,"ami":7583,"orced":7584,"▁Pur":7585,"▁Raj":7586,"▁moves":7587,"▁Row":7588,"▁exception":7589,"▁tied":7590,"▁volunte":7591,"lig":7592,"▁Within":7593,"char":7594,"▁Color":7595,"▁Cas":7596,"▁Conc":7597,"▁bringing":7598,"▁Master":7599,"▁costs":7600,"upt":7601,"▁intention":7602,"▁highlight":7603,"▁feeling":7604,"elsh":7605,"▁Nar":7606,"▁alleged":7607,"▁Bah":7608,"▁finishing":7609,"▁Eric":7610,"isms":7611,"▁Additionally":7612,"▁recovered":7613,"▁unusual":7614,"▁speaking":7615,"▁demol":7616,"▁Fame":7617,"▁shop":7618,"▁Sab":7619,"oral":7620,"lets":7621,"▁serves":7622,"▁properties":7623,"▁stayed":7624,"▁incorporated":7625,"▁strateg":7626,"onto":7627,"▁attributed":7628,"▁83":7629,"▁breaking":7630,"aza":7631,"▁emerged":7632,"▁sons":7633,"▁intercept":7634,"▁opposite":7635,"▁Lisa":7636,"▁dipl":7637,"▁1952":7638,"emeter":7639,"enses":7640,"▁Phill":7641,"▁driven":7642,"▁theatre":7643,"riers":7644,"▁Morris":7645,"rating":7646,"▁Morgan":7647,"▁atmosphere":7648,"▁Iron":7649,"▁chorus":7650,"aire":7651,"▁Robinson":7652,"othing":7653,"▁classic":7654,"▁occasionally":7655,"▁Norman":7656,"▁Prior":7657,"▁Kr":7658,"▁ready":7659,"olec":7660,"▁Ele":7661,"▁establishment":7662,"▁cavalry":7663,"▁spok":7664,"umin":7665,"▁Ever":7666,"▁regularly":7667,"▁courts":7668,"▁effectively":7669,"▁dissip":7670,"▁surviving":7671,"▁vary":7672,"▁Temple":7673,"▁dream":7674,"▁1933":7675,"thm":7676,"▁divers":7677,"▁responsibility":7678,"▁prey":7679,"▁Television":7680,"▁Similar":7681,"▁methods":7682,"▁Hawai":7683,"▁Sky":7684,"ogen":7685,"▁sounds":7686,"▁Around":7687,"▁shore":7688,"▁completion":7689,"pective":7690,"▁Unlike":7691,"▁materials":7692,"weight":7693,"▁superv":7694,"▁176":7695,"▁province":7696,"▁Construction":7697,"▁CE":7698,"uty":7699,"don":7700,"▁classified":7701,"▁heat":7702,"▁attracted":7703,"▁warning":7704,"▁fields":7705,"wen":7706,"oslav":7707,"sole":7708,"▁divisions":7709,"▁accommod":7710,"rim":7711,"▁Gh":7712,"▁Cab":7713,"▁quant":7714,"▁entertain":7715,"▁persu":7716,"▁Francis":7717,"▁Nelson":7718,"ece":7719,"ban":7720,"▁technical":7721,"▁global":7722,"▁Nich":7723,"▁interpret":7724,"nold":7725,"▁Finn":7726,"▁Patrick":7727,"▁mo":7728,"▁differences":7729,"inton":7730,"▁passage":7731,"AC":7732,"▁Lanc":7733,"▁Anton":7734,"▁Ford":7735,"abled":7736,"▁kid":7737,"▁1910":7738,"▁1935":7739,"▁cruiser":7740,"▁brain":7741,"icks":7742,"▁Premier":7743,"▁none":7744,"▁neither":7745,"▁Sweden":7746,"▁Budd":7747,"▁DE":7748,"▁aboard":7749,"▁Techn":7750,"▁stood":7751,"ipe":7752,"▁sam":7753,"▁Mit":7754,"▁battleships":7755,"▁reinforce":7756,"oyd":7757,"▁1949":7758,"▁clubs":7759,"▁basketball":7760,"▁association":7761,"ji":7762,"▁1951":7763,"▁Welsh":7764,"▁rooms":7765,"nce":7766,"▁eleven":7767,"▁ancest":7768,"▁ratings":7769,"nings":7770,"▁Nations":7771,"▁Hell":7772,"▁musicians":7773,"idden":7774,"▁hal":7775,"▁desire":7776,"▁shif":7777,"▁medic":7778,"▁squ":7779,"▁rose":7780,"▁outbreak":7781,"▁separated":7782,"▁classification":7783,"▁climate":7784,"▁seemed":7785,"omot":7786,"▁Anne":7787,"▁votes":7788,"teenth":7789,"agle":7790,"▁predecess":7791,"▁Toronto":7792,"▁requested":7793,"▁3D":7794,"ón":7795,"▁vehicle":7796,"▁picture":7797,"▁historians":7798,"▁Matthew":7799,"▁13th":7800,"▁ment":7801,"▁reality":7802,"▁memory":7803,"▁Dog":7804,"▁movements":7805,"▁Allen":7806,"▁Profess":7807,"▁chemical":7808,"ici":7809,"▁Marg":7810,"▁Byzantine":7811,"ewhere":7812,"▁map":7813,"▁hoped":7814,"▁Marine":7815,"▁Netherlands":7816,"▁Chron":7817,"▁Belg":7818,"▁ille":7819,"reck":7820,"▁16th":7821,"abil":7822,"▁Sn":7823,"▁Open":7824,"▁raise":7825,"▁difficulty":7826,"▁Journal":7827,"ogy":7828,"▁Every":7829,"▁restored":7830,"▁Pow":7831,"▁Sports":7832,"burn":7833,"▁expect":7834,"▁programme":7835,"▁Whe":7836,"inder":7837,"▁vide":7838,"▁communities":7839,"▁Bang":7840,"▁USS":7841,"ige":7842,"▁remember":7843,"▁raid":7844,"▁fer":7845,"▁teen":7846,"▁Iraq":7847,"▁flank":7848,"▁Jews":7849,"▁fal":7850,"▁premiere":7851,"▁delayed":7852,"▁discovery":7853,"▁pure":7854,"▁Dean":7855,"▁Jacob":7856,"▁relative":7857,"▁Again":7858,"▁anniversary":7859,"▁inspiration":7860,"▁greatly":7861,"▁injuries":7862,"▁satisf":7863,"har":7864,"▁gal":7865,"▁Design":7866,"▁otherwise":7867,"▁Bishop":7868,"▁1900":7869,"▁neighbor":7870,"▁Sax":7871,"▁accounts":7872,"▁funding":7873,"▁Ult":7874,"▁depict":7875,"hire":7876,"▁Domin":7877,"ilers":7878,"▁praise":7879,"▁surrounded":7880,"▁strate":7881,"iate":7882,"▁NC":7883,"▁recru":7884,"▁dens":7885,"▁massive":7886,"▁penalty":7887,"▁spoke":7888,"▁partner":7889,"▁crop":7890,"▁7th":7891,"▁needs":7892,"▁claiming":7893,"▁tries":7894,"▁die":7895,"▁Wright":7896,"▁suit":7897,"▁assemb":7898,"▁batting":7899,"▁I.":7900,"▁weapon":7901,"▁crosses":7902,"▁photograph":7903,"▁strategy":7904,"▁cra":7905,"▁lat":7906,"▁consp":7907,"▁forming":7908,"anth":7909,"▁Dor":7910,"▁wrong":7911,"▁Stra":7912,"▁astron":7913,"▁Rick":7914,"▁legend":7915,"▁involvement":7916,"▁fled":7917,"▁accompl":7918,"▁stands":7919,"▁Glob":7920,"▁documentary":7921,"gets":7922,"▁Armen":7923,"▁worst":7924,"▁Croatian":7925,"real":7926,"aired":7927,"▁Dick":7928,"▁architecture":7929,"▁remn":7930,"▁Hop":7931,"▁Oak":7932,"▁5th":7933,"▁Da":7934,"▁temporary":7935,"▁ash":7936,"uble":7937,"▁bombard":7938,"▁chairman":7939,"▁Heart":7940,"▁determine":7941,"▁Jam":7942,"▁plane":7943,"▁enf":7944,"▁Thompson":7945,"going":7946,"▁dismissed":7947,"uther":7948,"▁Last":7949,"▁girls":7950,"▁Russell":7951,"▁rot":7952,"formula":7953,"▁Islam":7954,"▁inner":7955,"▁hear":7956,"▁weekend":7957,"▁<formula":7958,"▁<formula>":7959,"▁sale":7960,"▁Trib":7961,"▁Hend":7962,"▁convinced":7963,"rum":7964,"▁Centre":7965,"▁ensure":7966,"▁category":7967,"▁reserv":7968,"▁cul":7969,"▁06":7970,"▁adaptation":7971,"▁NFL":7972,"▁Mars":7973,"▁resources":7974,"▁sight":7975,"onds":7976,"▁colonial":7977,"▁somewhat":7978,"▁library":7979,"▁interests":7980,"▁Holy":7981,"lyn":7982,"▁Modern":7983,"▁streets":7984,"▁Free":7985,"▁immediate":7986,"wing":7987,"▁scheme":7988,"▁Carter":7989,"▁Winter":7990,"▁Puerto":7991,"body":7992,"▁starred":7993,"▁Front":7994,"▁medieval":7995,"▁commemor":7996,"▁Cooper":7997,"agre":7998,"▁ray":7999,"▁falling":8000,"▁Kelly":8001,"oster":8002,"▁absor":8003,"▁6th":8004,"▁carbon":8005,"▁presidential":8006,"itzer":8007,"▁ic":8008,"wealth":8009,"▁Ker":8010,"▁throne":8011,"▁Spe":8012,"po":8013,"▁academic":8014,"▁surviv":8015,"▁appropri":8016,"▁classical":8017,"▁Dra":8018,"▁Along":8019,"▁techniques":8020,"▁races":8021,"▁sed":8022,"▁fitted":8023,"▁meets":8024,"▁fighter":8025,"▁eggs":8026,"aya":8027,"▁convent":8028,"▁ori":8029,"icide":8030,"▁loyal":8031,"▁ninth":8032,"▁Brother":8033,"▁Hungarian":8034,"▁Rang":8035,"▁Network":8036,"night":8037,"▁bright":8038,"▁'ll":8039,"▁Gard":8040,"▁Niel":8041,"▁adults":8042,"▁Pak":8043,"▁Bou":8044,"▁superior":8045,"▁submarine":8046,"▁Nob":8047,"▁passenger":8048,"▁reviewer":8049,"rine":8050,"▁interior":8051,"▁lake":8052,"▁attacking":8053,"▁absence":8054,"▁seeing":8055,"ester":8056,"▁1913":8057,"▁renew":8058,"▁Thus":8059,"▁favorite":8060,"▁Tok":8061,"▁Wy":8062,"▁airport":8063,"▁Labor":8064,"▁Parker":8065,"ivan":8066,"▁Est":8067,"▁else":8068,"▁Gri":8069,"▁engineer":8070,"▁premiered":8071,"bec":8072,"▁convection":8073,"▁synthes":8074,"▁alien":8075,"osure":8076,"arsh":8077,"▁deemed":8078,"▁Batman":8079,"▁visible":8080,"▁dub":8081,"▁conclusion":8082,"▁landed":8083,"ronze":8084,"▁Harris":8085,"▁dating":8086,"▁Late":8087,"▁AI":8088,"▁appearing":8089,"▁1927":8090,"▁partn":8091,"▁PA":8092,"▁characteristics":8093,"▁1926":8094,"▁rum":8095,"acent":8096,"omp":8097,"▁operate":8098,"▁afterwards":8099,"▁leads":8100,"▁romantic":8101,"▁lies":8102,"▁elections":8103,"▁12th":8104,"using":8105,"▁Bi":8106,"▁facility":8107,"▁municip":8108,"▁Library":8109,"▁suffering":8110,"▁encouraged":8111,"book":8112,"▁x":8113,"▁colony":8114,"▁temperatures":8115,"eor":8116,"chang":8117,"▁modified":8118,"▁1934":8119,"▁1921":8120,"▁Murray":8121,"▁retirement":8122,"ania":8123,"▁DNA":8124,"▁buy":8125,"▁doct":8126,"▁credit":8127,"▁everyone":8128,"▁Ts":8129,"▁painted":8130,"oen":8131,"▁holds":8132,"▁controversial":8133,"asure":8134,"▁san":8135,"ossible":8136,"▁legislation":8137,"▁Education":8138,"aver":8139,"▁Knight":8140,"▁challeng":8141,"▁Commonwealth":8142,"▁attempting":8143,"urches":8144,"▁believes":8145,"roit":8146,"uster":8147,"▁archae":8148,"▁gone":8149,"▁Berlin":8150,"▁08":8151,"▁Police":8152,"▁900":8153,"▁wings":8154,"▁pound":8155,"▁Commander":8156,"▁Houston":8157,"▁od":8158,"▁code":8159,"▁continuing":8160,"▁distributed":8161,"▁dominated":8162,"▁rescue":8163,"▁Brand":8164,"▁RAAF":8165,"▁battleship":8166,"▁secured":8167,"ixon":8168,"▁depicted":8169,"▁Palace":8170,"▁Santa":8171,"aws":8172,"▁judge":8173,"▁looked":8174,"▁authors":8175,"tic":8176,"▁anyone":8177,"▁FI":8178,"apse":8179,"▁Story":8180,"▁Ut":8181,"▁1912":8182,"▁standards":8183,"scape":8184,"encies":8185,"eline":8186,"▁immig":8187,"▁Advent":8188,"▁longest":8189,"▁cancer":8190,"▁grass":8191,"▁unsuccessful":8192,"▁wel":8193,"▁monarch":8194,"coming":8195,"▁Hospital":8196,"▁railroad":8197,"▁habitat":8198,"▁wins":8199,"▁neck":8200,"▁graphics":8201,"▁Yug":8202,"▁obtain":8203,"▁Cook":8204,"▁Mort":8205,"▁trained":8206,"▁Li":8207,"▁union":8208,"▁biggest":8209,"emetery":8210,"▁Swedish":8211,"▁sudden":8212,"▁Get":8213,"▁arrangement":8214,"▁Ot":8215,"▁Indians":8216,"li":8217,"▁Roberts":8218,"▁measures":8219,"▁jump":8220,"▁Obs":8221,"ultane":8222,"▁1932":8223,"▁Simpson":8224,"ache":8225,"inals":8226,"▁carrier":8227,"▁Yan":8228,"▁Ey":8229,"20":8230,"aska":8231,"▁acknowled":8232,"▁deployed":8233,"owa":8234,"▁nickn":8235,"eenth":8236,"▁Silver":8237,"opes":8238,"▁belt":8239,"▁Lyn":8240,"oming":8241,"▁Corporation":8242,"▁informed":8243,"▁representing":8244,"ternal":8245,"▁ster":8246,"▁Social":8247,"▁releases":8248,"▁achieve":8249,"ching":8250,"▁Warner":8251,"ture":8252,"hess":8253,"▁09":8254,"▁sees":8255,"▁closer":8256,"▁garrison":8257,"▁generated":8258,"▁formerly":8259,"▁alleg":8260,"▁Merc":8261,"tenance":8262,"▁Jason":8263,"una":8264,"▁NBC":8265,"▁historic":8266,"fare":8267,"▁bab":8268,"▁Yugoslav":8269,"▁convention":8270,"▁styles":8271,"▁trials":8272,"▁Anthony":8273,"▁Cru":8274,"▁grade":8275,"▁emergency":8276,"elle":8277,"▁gets":8278,"▁moderate":8279,"▁veter":8280,"▁influential":8281,"▁bats":8282,"olph":8283,"▁RAF":8284,"agu":8285,"▁festival":8286,"▁successor":8287,"▁siege":8288,"▁Hin":8289,"▁cycle":8290,"▁assass":8291,"▁questions":8292,"▁molec":8293,"otype":8294,"▁Detroit":8295,"▁ru":8296,"▁emotional":8297,"▁Croatia":8298,"▁owners":8299,"hemat":8300,"▁Tal":8301,"uts":8302,"▁1929":8303,"▁Bure":8304,"▁influences":8305,"▁novels":8306,"▁narrative":8307,"▁ridge":8308,"▁wooden":8309,"aria":8310,"▁thin":8311,"▁stead":8312,"▁defended":8313,"▁excess":8314,"▁Author":8315,"▁constant":8316,"▁1911":8317,"▁apparently":8318,"▁Gaga":8319,"▁veget":8320,"▁victims":8321,"▁journalist":8322,"▁PC":8323,"fire":8324,"▁experiences":8325,"▁discussed":8326,"mate":8327,"aints":8328,"▁Chamber":8329,"▁childhood":8330,"▁140":8331,"▁detail":8332,"▁executed":8333,"▁Gilbert":8334,"▁diplom":8335,"noon":8336,"▁eat":8337,"▁alco":8338,"▁legs":8339,"▁instruments":8340,"▁pregn":8341,"▁Rap":8342,"arked":8343,"▁concur":8344,"▁offices":8345,"▁v.":8346,"▁treated":8347,"▁environmental":8348,"yard":8349,"usted":8350,"▁Princess":8351,"▁giant":8352,"▁depos":8353,"▁mine":8354,"ila":8355,"▁Asian":8356,"▁enters":8357,"rams":8358,"▁Spears":8359,"▁1931":8360,"imore":8361,"▁Desc":8362,"▁1922":8363,"▁coins":8364,"achment":8365,"obi":8366,"▁Melbourne":8367,"anny":8368,"▁factors":8369,"▁bear":8370,"▁Vice":8371,"▁Heavy":8372,"▁Clinton":8373,"▁hunting":8374,"▁Jesus":8375,"iens":8376,"▁Somers":8377,"▁hundreds":8378,"iliar":8379,"▁Evans":8380,"▁channel":8381,"aste":8382,"▁USA":8383,"▁Nielsen":8384,"▁ocean":8385,"▁Pope":8386,"▁uniform":8387,"▁resigned":8388,"alo":8389,"▁gay":8390,"▁Atlant":8391,"▁ride":8392,"▁reveals":8393,"▁Organ":8394,"▁Guy":8395,"text":8396,"▁enh":8397,"▁Xbox":8398,"▁navig":8399,"▁skills":8400,"▁Nevertheless":8401,"▁prevented":8402,"▁Mun":8403,"▁Bed":8404,"▁pointed":8405,"▁clim":8406,"rees":8407,"▁bon":8408,"▁Wing":8409,"▁watching":8410,"▁pushed":8411,"▁spend":8412,"rot":8413,"▁05":8414,"▁Category":8415,"ES":8416,"usic":8417,"▁chapter":8418,"orous":8419,"▁drums":8420,"▁facing":8421,"▁Stewart":8422,"▁intent":8423,"▁opponents":8424,"▁happened":8425,"▁preferred":8426,"▁flew":8427,"▁Muslim":8428,"▁Real":8429,"▁footage":8430,"▁fil":8431,"▁Origin":8432,"lie":8433,"▁pull":8434,"▁difference":8435,"▁reportedly":8436,"▁Bulgar":8437,"▁format":8438,"▁formally":8439,"▁firing":8440,"icians":8441,"▁Tower":8442,"▁Lim":8443,"▁poetry":8444,"▁accomp":8445,"▁check":8446,"▁inhabit":8447,"▁intense":8448,"▁languages":8449,"▁Turkish":8450,"▁thereafter":8451,"oto":8452,"▁locomot":8453,"▁handed":8454,"▁thousand":8455,"▁Express":8456,"itter":8457,"ogether":8458,"▁resign":8459,"▁relationships":8460,"▁Sarah":8461,"▁chain":8462,"▁Carib":8463,"tty":8464,"▁Benn":8465,"▁notably":8466,"▁Austria":8467,"▁Samuel":8468,"▁Rey":8469,"▁Queens":8470,"▁device":8471,"▁visitors":8472,"▁vision":8473,"▁Lennon":8474,"▁gather":8475,"▁exposed":8476,"▁animation":8477,"▁Colorado":8478,"▁existed":8479,"▁surrender":8480,"▁employees":8481,"▁bes":8482,"▁Aud":8483,"ologists":8484,"▁Greece":8485,"ski":8486,"onies":8487,"▁hearing":8488,"idi":8489,"▁Raw":8490,"▁departed":8491,"▁accompany":8492,"▁Bird":8493,"▁Albums":8494,"▁participate":8495,"roc":8496,"▁linked":8497,"▁Baltimore":8498,"▁Hans":8499,"▁170":8500,"mad":8501,"ois":8502,"hatt":8503,"bean":8504,"▁rebell":8505,"▁dialogue":8506,"olis":8507,"▁Ark":8508,"spec":8509,"ds":8510,"yo":8511,"stic":8512,"▁Malays":8513,"▁extent":8514,"▁residential":8515,"▁afternoon":8516,"▁cruisers":8517,"▁Stock":8518,"ican":8519,"▁instance":8520,"▁announce":8521,"▁learning":8522,"▁substantial":8523,"ullivan":8524,"▁detailed":8525,"igen":8526,"▁beach":8527,"▁audio":8528,"ropolitan":8529,"▁vul":8530,"▁impressed":8531,"orage":8532,"▁Writing":8533,"▁util":8534,"da":8535,"▁Cz":8536,"▁Cam":8537,"MA":8538,"▁Horn":8539,"▁Lane":8540,"jo":8541,"▁stem":8542,"unes":8543,"▁universe":8544,"▁avo":8545,"prise":8546,"▁Initially":8547,"▁mart":8548,"▁15th":8549,"▁Marshall":8550,"▁ske":8551,"▁easy":8552,"endment":8553,"▁periods":8554,"▁Wrestling":8555,"▁plate":8556,"▁Foundation":8557,"▁huge":8558,"orial":8559,"▁tempor":8560,"lock":8561,"▁publisher":8562,"▁Dave":8563,"▁enthus":8564,"▁hat":8565,"ribed":8566,"▁imprison":8567,"▁taught":8568,"▁territories":8569,"▁teeth":8570,"▁Frederick":8571,"▁reviewers":8572,"opter":8573,"▁driver":8574,"▁testing":8575,"▁Jr":8576,"▁Ern":8577,"▁videos":8578,"viation":8579,"▁1928":8580,"▁happy":8581,"▁isolated":8582,"otes":8583,"▁stable":8584,"▁feud":8585,"ogan":8586,"▁vessel":8587,"iami":8588,"boy":8589,"▁tests":8590,"▁ca":8591,"▁upd":8592,"▁Horse":8593,"▁bridges":8594,"▁Having":8595,"▁diameter":8596,"▁lob":8597,"▁Banks":8598,"▁reprodu":8599,"▁understand":8600,"▁withdrew":8601,"▁picked":8602,"▁encountered":8603,"▁upgraded":8604,"roph":8605,"▁negotiations":8606,"eping":8607,"▁agents":8608,"FC":8609,"▁10th":8610,"▁sympt":8611,"▁goods":8612,"▁inher":8613,"cho":8614,"▁Mario":8615,"▁Somerset":8616,"▁Release":8617,"atically":8618,"▁Anna":8619,"▁1925":8620,"roke":8621,"▁Buck":8622,"▁Jess":8623,"▁dangerous":8624,"idae":8625,"▁aged":8626,"▁Know":8627,"▁simultane":8628,"▁diagn":8629,"mission":8630,"▁junior":8631,"▁founder":8632,"▁satell":8633,"▁normally":8634,"▁deter":8635,"▁Anglo":8636,"▁behavi":8637,"sea":8638,"▁relie":8639,"▁window":8640,"▁factor":8641,"▁keeping":8642,"▁Mississ":8643,"▁collaps":8644,"▁specimens":8645,"▁reun":8646,"▁partly":8647,"▁Miami":8648,"utt":8649,"▁sure":8650,"▁Giants":8651,"▁fur":8652,"▁medium":8653,"borough":8654,"▁ethnic":8655,"▁technique":8656,"▁frequent":8657,"▁Player":8658,"▁tie":8659,"▁crisis":8660,"olas":8661,"▁pounds":8662,"▁Call":8663,"▁mir":8664,"▁lowest":8665,"etime":8666,"▁Alab":8667,"▁Ext":8668,"bridge":8669,"▁vic":8670,"▁prohib":8671,"▁monument":8672,"▁organizations":8673,"▁outf":8674,"▁Seattle":8675,"▁apprec":8676,"▁1924":8677,"▁toll":8678,"▁diet":8679,"▁engineering":8680,"▁turrets":8681,"▁traveled":8682,"chen":8683,"iable":8684,"away":8685,"▁whereas":8686,"▁Soon":8687,"▁refers":8688,"▁Championships":8689,"▁Cre":8690,"▁insc":8691,"▁1920s":8692,"▁rarely":8693,"▁Op":8694,"▁resear":8695,"▁designer":8696,"helm":8697,"▁tone":8698,"▁9th":8699,"▁ped":8700,"▁Trek":8701,"usal":8702,"▁proced":8703,"▁Treaty":8704,"▁lose":8705,"▁vice":8706,"▁maintenance":8707,"▁Human":8708,"ée":8709,"▁ax":8710,"amese":8711,"iece":8712,"brid":8713,"▁doesn":8714,"▁CR":8715,"▁Hand":8716,"▁partially":8717,"▁07":8718,"▁ML":8719,"▁orb":8720,"gery":8721,"▁permission":8722,"▁Iowa":8723,"▁spending":8724,"▁advice":8725,"▁verse":8726,"▁Alabama":8727,"▁lad":8728,"▁criticised":8729,"▁bypass":8730,"ennis":8731,"▁Forces":8732,"▁Australians":8733,"▁Napole":8734,"igs":8735,"▁platinum":8736,"▁complic":8737,"▁difficulties":8738,"xual":8739,"▁finale":8740,"ygen":8741,"▁agree":8742,"▁restric":8743,"▁uncertain":8744,"ls":8745,"▁policies":8746,"oked":8747,"▁excell":8748,"▁compete":8749,"▁ranking":8750,"▁phen":8751,"▁finals":8752,"▁proport":8753,"▁mainstream":8754,"▁indicate":8755,"col":8756,"▁personality":8757,"▁unn":8758,"▁refuge":8759,"▁Buff":8760,"▁Hu":8761,"▁Dur":8762,"▁liqu":8763,"▁pitched":8764,"ilst":8765,"▁km2":8766,"▁anticip":8767,"attered":8768,"inction":8769,"▁concerts":8770,"▁Then":8771,"▁comments":8772,"▁recordings":8773,"▁remove":8774,"▁Charlie":8775,"▁Caribbean":8776,"uscript":8777,"▁mamm":8778,"▁shear":8779,"▁windows":8780,"▁covers":8781,"▁safe":8782,"▁Canal":8783,"▁Minnes":8784,"▁symp":8785,"▁1923":8786,"▁Lawrence":8787,"▁repair":8788,"▁14th":8789,"▁strip":8790,"▁moral":8791,"▁falls":8792,"▁representative":8793,"▁seats":8794,"▁forcing":8795,"uda":8796,"▁McD":8797,"▁Ah":8798,"▁recur":8799,"▁extreme":8800,"▁restrict":8801,"▁Yanke":8802,"▁fighters":8803,"▁hull":8804,"▁Bros":8805,"▁recommend":8806,"▁rates":8807,"▁jur":8808,"▁overs":8809,"▁Crown":8810,"chell":8811,"▁MP":8812,"▁alter":8813,"power":8814,"▁Nat":8815,"▁protest":8816,"▁prompted":8817,"▁tot":8818,"▁truth":8819,"▁destroyers":8820,"▁Township":8821,"▁tenth":8822,"rang":8823,"▁Senator":8824,"▁dynasty":8825,"▁diff":8826,"▁describe":8827,"enh":8828,"▁Mach":8829,"▁reconst":8830,"▁underw":8831,"▁examples":8832,"▁EP":8833,"▁minimum":8834,"▁Ian":8835,"▁bases":8836,"▁tub":8837,"▁phr":8838,"isd":8839,"▁pin":8840,"▁Ministry":8841,"▁Nazi":8842,"mates":8843,"▁travelled":8844,"▁hockey":8845,"Ar":8846,"urance":8847,"▁churches":8848,"▁USD":8849,"▁friendly":8850,"▁Garden":8851,"▁Blood":8852,"▁Grammy":8853,"▁Brig":8854,"ifer":8855,"▁Health":8856,"▁Dead":8857,"▁Hungary":8858,"▁neighborhood":8859,"sk":8860,"die":8861,"▁boys":8862,"▁pric":8863,"imeter":8864,"▁bombers":8865,"alions":8866,"▁Polit":8867,"▁drawing":8868,"▁Country":8869,"▁Æ":8870,"▁Benj":8871,"▁Christopher":8872,"mers":8873,"▁Dance":8874,"▁Return":8875,"▁Ban":8876,"▁inaug":8877,"▁ju":8878,"ugby":8879,"▁doctor":8880,"▁mand":8881,"▁housing":8882,"▁displayed":8883,"▁approval":8884,"▁tribute":8885,"▁adjacent":8886,"▁Belgium":8887,"▁Roc":8888,"onnaissance":8889,"▁collapse":8890,"▁turb":8891,"▁credits":8892,"▁aware":8893,"eu":8894,"▁joining":8895,"▁listing":8896,"wa":8897,"▁Hamp":8898,"▁01":8899,"▁creator":8900,"ods":8901,"▁grown":8902,"▁designation":8903,"▁Diego":8904,"bra":8905,"zz":8906,"▁DC":8907,"▁Event":8908,"odore":8909,"ante":8910,"▁Shakesp":8911,"▁partnership":8912,"▁Rand":8913,"▁advis":8914,"▁fung":8915,"▁Cold":8916,"▁explo":8917,"▁protagonist":8918,"▁refere":8919,"iac":8920,"▁storms":8921,"▁moments":8922,"▁Represent":8923,"▁arts":8924,"▁acted":8925,"▁creative":8926,"icy":8927,"▁Medal":8928,"▁changing":8929,"▁powered":8930,"▁Gab":8931,"▁wheel":8932,"▁Much":8933,"▁asks":8934,"▁*":8935,"▁Hud":8936,"▁Kal":8937,"▁Laure":8938,"itud":8939,"▁rounds":8940,"▁instrumental":8941,"▁Children":8942,"▁radar":8943,"▁trend":8944,"▁victories":8945,"velt":8946,"▁possession":8947,"▁els":8948,"▁Camer":8949,"▁Ll":8950,"▁1908":8951,"▁dollars":8952,"▁Beck":8953,"▁paintings":8954,"▁canal":8955,"▁treaty":8956,"▁appointment":8957,"ounced":8958,"▁covering":8959,"▁Khan":8960,"▁Michel":8961,"▁elsewhere":8962,"sters":8963,"▁1905":8964,"▁villages":8965,"▁survive":8966,"▁Cred":8967,"esh":8968,"▁minimal":8969,"▁1909":8970,"▁eliminated":8971,"▁Record":8972,"otten":8973,"▁Legacy":8974,"icts":8975,"▁scientists":8976,"▁surprise":8977,"▁Benjamin":8978,"▁Guardian":8979,"▁pool":8980,"▁innov":8981,"▁precip":8982,"▁telling":8983,"▁Kurt":8984,"▁Minnesota":8985,"ivated":8986,"▁Hills":8987,"▁occupation":8988,"▁seeking":8989,"▁Roose":8990,"▁Mississipp":8991,"▁brick":8992,"▁helic":8993,"▁arriving":8994,"▁rhythm":8995,"cop":8996,"▁suicide":8997,"▁analy":8998,"▁loan":8999,"▁newspapers":9000,"▁emperor":9001,"▁helping":9002,"▁Vietnamese":9003,"ecraft":9004,"▁Hockey":9005,"▁purposes":9006,"▁benefit":9007,"▁11th":9008,"▁twin":9009,"30":9010,"▁smooth":9011,"▁Alfred":9012,"▁values":9013,"▁AR":9014,"▁occasions":9015,"ouri":9016,"▁Set":9017,"▁gard":9018,"active":9019,"▁Interstate":9020,"▁Fal":9021,"▁unlike":9022,"▁Hong":9023,"▁Manhatt":9024,"▁21st":9025,"▁dispute":9026,"▁Administ":9027,"rupted":9028,"▁fishing":9029,"▁Hind":9030,"▁Div":9031,"▁Manhattan":9032,"vy":9033,"▁option":9034,"▁Tun":9035,"▁Thor":9036,"▁degrees":9037,"▁Stevens":9038,"▁wet":9039,"▁105":9040,"▁gat":9041,"▁Walker":9042,"orious":9043,"▁murd":9044,"uman":9045,"▁125":9046,"▁soil":9047,"ographical":9048,"roid":9049,"▁manuscript":9050,"no":9051,"▁Lin":9052,"▁schedule":9053,"▁struggle":9054,"▁balance":9055,"▁Aff":9056,"▁Franklin":9057,"▁04":9058,"▁preserved":9059,"▁Peninsula":9060,"▁Comb":9061,"▁cryst":9062,"overs":9063,"rm":9064,"▁Shel":9065,"▁Flight":9066,"▁Perform":9067,"▁Son":9068,"▁resumed":9069,"▁Anim":9070,"▁circumst":9071,"▁Roosevelt":9072,"gon":9073,"▁Trust":9074,"▁Kansas":9075,"▁1907":9076,"▁Bh":9077,"▁survivors":9078,"orph":9079,"acks":9080,"▁publicly":9081,"▁competed":9082,"▁categ":9083,"munition":9084,"nik":9085,"▁flash":9086,"atherine":9087,"▁cooper":9088,"▁violent":9089,"▁164":9090,"▁candidates":9091,"rix":9092,"▁honour":9093,"▁py":9094,"rome":9095,"▁procl":9096,"▁intensified":9097,"▁Bull":9098,"▁Ward":9099,"▁span":9100,"ishment":9101,"▁impossible":9102,"▁Portland":9103,"▁pilots":9104,"▁wrest":9105,"▁dies":9106,"acle":9107,"▁Fried":9108,"action":9109,"▁Industry":9110,"▁neutral":9111,"A.":9112,"SP":9113,"▁wedding":9114,"▁Nash":9115,"▁bid":9116,"incial":9117,"▁Ice":9118,"▁abilities":9119,"▁coordin":9120,"▁cook":9121,"ulating":9122,"▁beautiful":9123,"mph":9124,"▁alignment":9125,"▁concrete":9126,"▁multi":9127,"▁Satur":9128,"sky":9129,"oking":9130,"▁assisted":9131,"▁Hotel":9132,"▁Philippines":9133,"▁Born":9134,"fted":9135,"▁VI":9136,"▁poison":9137,"▁argument":9138,"▁Lith":9139,"▁prosp":9140,"▁defeating":9141,"▁consult":9142,"▁advoc":9143,"▁electronic":9144,"obile":9145,"▁teaching":9146,".m":9147,"▁nations":9148,"▁Building":9149,"▁Dom":9150,"ensions":9151,"▁simpl":9152,"▁businesses":9153,"▁custom":9154,"isp":9155,"▁lists":9156,"▁overt":9157,"▁Ple":9158,"▁Jos":9159,"▁rivers":9160,"aph":9161,"▁serial":9162,"ilty":9163,"▁Native":9164,"▁165":9165,"▁lem":9166,"▁discip":9167,"▁Cole":9168,"▁danc":9169,"▁elabor":9170,"▁absol":9171,"▁Wolf":9172,"▁suitable":9173,"▁opponent":9174,"▁assists":9175,"▁Mississippi":9176,"▁agricultural":9177,"▁Lam":9178,"▁Brun":9179,"▁mines":9180,"▁encounter":9181,"▁oxygen":9182,"▁submitted":9183,"▁foundation":9184,"▁interesting":9185,"▁tunnel":9186,"▁signing":9187,"▁Digital":9188,"▁parent":9189,"▁Area":9190,"▁backing":9191,"▁fifteen":9192,"eare":9193,"▁scholar":9194,"▁Cob":9195,"▁Blues":9196,"▁understanding":9197,"itated":9198,"CA":9199,"▁behalf":9200,"icer":9201,"▁Dw":9202,"iveness":9203,"▁sunk":9204,"▁citing":9205,"▁Hem":9206,"rows":9207,"▁waves":9208,"▁grey":9209,"▁sank":9210,"▁Wol":9211,"▁Sullivan":9212,"▁percentage":9213,"▁Alexand":9214,"▁forests":9215,"face":9216,"▁ninet":9217,"▁ammunition":9218,"▁symptoms":9219,"▁Shakespeare":9220,"dale":9221,"▁Tag":9222,"▁orbit":9223,"▁spiritual":9224,"ctic":9225,"▁Dod":9226,"▁Campbell":9227,"▁Tenness":9228,"bl":9229,"▁parish":9230,"unch":9231,"▁subjects":9232,"▁Halo":9233,"▁forty":9234,"▁skull":9235,"▁situated":9236,"▁closing":9237,"▁Athlet":9238,"▁imperial":9239,"▁Hindu":9240,"▁nom":9241,"▁signs":9242,"▁junction":9243,"▁Vinc":9244,"▁repairs":9245,"alities":9246,"▁Prom":9247,"agen":9248,"▁usual":9249,"▁Kings":9250,"▁Non":9251,"▁Hero":9252,"onymous":9253,"▁resolution":9254,"▁illness":9255,"▁voiced":9256,"▁deliber":9257,"▁portra":9258,"▁Steven":9259,"▁corpor":9260,"▁Rab":9261,"asters":9262,"▁assess":9263,"▁controll":9264,"▁Box":9265,"▁functions":9266,"▁audiences":9267,"▁attendance":9268,"▁Historic":9269,"▁Friend":9270,"▁Lucas":9271,"▁Race":9272,"▁Dest":9273,"▁Josh":9274,"▁asking":9275,"lah":9276,"▁disaster":9277,"▁Egyptian":9278,"▁collaboration":9279,"▁Ku":9280,".m.":9281,"▁restaurant":9282,"father":9283,"amic":9284,"▁string":9285,"▁feelings":9286,"▁suspended":9287,"▁Mack":9288,"▁underground":9289,"▁flights":9290,"▁mountains":9291,"▁lieutenant":9292,"▁worship":9293,"▁evil":9294,"▁targets":9295,"amps":9296,"▁cargo":9297,"▁Ren":9298,"▁affairs":9299,"▁exit":9300,"▁Tennessee":9301,"▁earthqu":9302,"aron":9303,"▁Warren":9304,"▁operational":9305,"▁initi":9306,"▁pron":9307,"▁willing":9308,"▁Louisiana":9309,"▁Margaret":9310,"rator":9311,"sex":9312,"▁1906":9313,"▁affair":9314,"▁recre":9315,"rus":9316,"osm":9317,"▁funeral":9318,"▁Depression":9319,"▁anch":9320,"▁aimed":9321,"▁Labour":9322,"▁prol":9323,"resents":9324,"▁Montreal":9325,"▁Tan":9326,"idd":9327,"▁compilation":9328,"▁McL":9329,"▁1904":9330,"▁Palest":9331,"▁poorly":9332,"▁documents":9333,"▁abol":9334,"▁360":9335,"▁filed":9336,"uv":9337,"ori":9338,"ques":9339,"▁lect":9340,"▁measured":9341,"uable":9342,"▁adopt":9343,"▁Missouri":9344,"▁sector":9345,"▁subt":9346,"▁affili":9347,"▁favorable":9348,"racts":9349,"▁registered":9350,"▁liked":9351,"rants":9352,"weet":9353,"▁recognised":9354,"▁rout":9355,"▁elder":9356,"▁conscious":9357,"▁circuit":9358,"▁Apple":9359,"▁statue":9360,"▁temporarily":9361,"▁bot":9362,"andal":9363,"▁explosion":9364,"ateur":9365,"▁Stat":9366,"▁shells":9367,"▁entertainment":9368,"▁represents":9369,"▁professor":9370,"▁Critics":9371,"▁Nag":9372,"fe":9373,"anium":9374,"▁jazz":9375,"▁replacing":9376,"▁Billy":9377,"▁Dragon":9378,"▁Mitchell":9379,"ception":9380,"▁Ring":9381,"▁sequences":9382,"▁Cow":9383,"▁preparation":9384,"▁Joh":9385,"▁Str":9386,"▁Small":9387,"▁fifty":9388,"inea":9389,"ika":9390,"▁ben":9391,"▁Czech":9392,"idel":9393,"▁offering":9394,"▁Kirk":9395,"10":9396,"▁artwork":9397,"▁interpre":9398,"▁Independent":9399,"▁03":9400,"overe":9401,"▁residence":9402,"▁restoration":9403,"▁Snow":9404,"▁Ped":9405,"▁cyl":9406,"gate":9407,"▁rig":9408,"▁directors":9409,"▁nucle":9410,"▁Graham":9411,"▁Mess":9412,"▁Vis":9413,"▁margin":9414,"▁Business":9415,"▁wore":9416,"adi":9417,"▁Mes":9418,"▁terror":9419,"▁Magn":9420,"▁Fem":9421,"orders":9422,"era":9423,"▁reluct":9424,"▁reflected":9425,"▁Near":9426,"▁overw":9427,"▁prime":9428,"▁expensive":9429,"issions":9430,"species":9431,"▁alliance":9432,"▁suggesting":9433,"▁Ye":9434,"▁touring":9435,"▁thinking":9436,"inental":9437,"▁Lov":9438,"▁completing":9439,"artney":9440,"▁rebuilt":9441,"▁alcohol":9442,"ancell":9443,"▁amongst":9444,"▁banks":9445,"unc":9446,"bishop":9447,"▁frig":9448,"▁Maur":9449,"▁UE":9450,"▁Seven":9451,"ylan":9452,"▁horror":9453,"CC":9454,"race":9455,"▁D.C.":9456,"▁escaped":9457,"▁pulled":9458,"▁bay":9459,"DS":9460,"ellect":9461,"quir":9462,"▁lacked":9463,"▁Ariz":9464,"▁cancelled":9465,"▁Frid":9466,"▁grav":9467,"▁Cuba":9468,"rep":9469,"▁Edge":9470,"▁armored":9471,"▁cod":9472,"▁dimens":9473,"▁coverage":9474,"▁reven":9475,"▁wasn":9476,"▁racing":9477,"▁amounts":9478,"▁clearly":9479,"TA":9480,"▁Chand":9481,"▁decides":9482,"▁Guide":9483,"▁engagement":9484,"▁predomin":9485,"▁tribes":9486,"▁argues":9487,"▁erupt":9488,"▁colonies":9489,"iph":9490,"▁dramatic":9491,"▁garden":9492,"▁familiar":9493,"▁communication":9494,"apping":9495,"overeign":9496,"▁patterns":9497,"▁cous":9498,"▁rit":9499,"▁Indies":9500,"▁marks":9501,"▁Phoen":9502,"▁Files":9503,"▁drove":9504,"okes":9505,"urally":9506,"▁ownership":9507,"rak":9508,"▁Tamil":9509,"▁seed":9510,"▁remnants":9511,"▁perspective":9512,"▁merchant":9513,"▁Cher":9514,"▁Persian":9515,"uary":9516,"▁saved":9517,"▁Sony":9518,"acon":9519,"storm":9520,"▁gang":9521,"▁Grey":9522,"▁Arizona":9523,"▁contributions":9524,"▁Saturday":9525,"▁mathemat":9526,"▁poems":9527,"▁solution":9528,"▁badly":9529,"▁print":9530,"je":9531,"▁fastest":9532,"▁administrative":9533,"▁wicket":9534,"▁false":9535,"▁tag":9536,"▁execut":9537,"▁Marie":9538,"▁115":9539,"▁armament":9540,"▁crews":9541,"▁playoffs":9542,"ti":9543,"▁Dylan":9544,"▁militia":9545,"ieties":9546,"▁excav":9547,"▁artistic":9548,"▁Scout":9549,"▁characterized":9550,"▁bulk":9551,"athy":9552,"▁boundary":9553,"▁severely":9554,"▁institutions":9555,"▁rising":9556,"▁earning":9557,"exp":9558,"▁flagship":9559,"▁Confederate":9560,"▁Bureau":9561,"▁Las":9562,"▁disappoin":9563,"fish":9564,"idency":9565,"▁kings":9566,"▁retail":9567,"▁Pa":9568,"ses":9569,"oga":9570,"▁depending":9571,"▁inhabitants":9572,"▁notice":9573,"itting":9574,"▁bran":9575,"▁context":9576,"ova":9577,"omber":9578,"▁explains":9579,"▁ideal":9580,"▁distinctive":9581,"▁Bros.":9582,"orer":9583,"mented":9584,"▁frust":9585,"▁demonstrated":9586,"bre":9587,"▁threw":9588,"▁inland":9589,"▁comparison":9590,"▁Oklah":9591,"▁bronze":9592,"▁genetic":9593,"▁restricted":9594,"▁condem":9595,"equ":9596,"▁ranks":9597,"▁bowling":9598,"▁ranging":9599,"cru":9600,"▁recip":9601,"▁arrive":9602,"▁fallen":9603,"▁Sin":9604,"elli":9605,"▁earn":9606,"▁sisters":9607,"▁Austrian":9608,"▁controls":9609,"ectic":9610,"uations":9611,"▁quiet":9612,"ivia":9613,"▁Nik":9614,"▁explain":9615,"▁Switzer":9616,"▁Amy":9617,"▁gap":9618,"▁Lang":9619,"▁maneu":9620,"▁8th":9621,"▁loop":9622,"▁Program":9623,"▁Such":9624,"▁Liz":9625,"▁vel":9626,"▁kW":9627,"▁obvious":9628,"▁Broadway":9629,"▁wider":9630,"life":9631,"▁practices":9632,"▁wants":9633,"▁electron":9634,"▁1901":9635,"▁revol":9636,"▁174":9637,"▁Harvey":9638,"▁Wilhelm":9639,"▁vulner":9640,"▁tip":9641,"▁trick":9642,"▁Econom":9643,"formation":9644,"▁Switzerland":9645,"▁shield":9646,"▁conservative":9647,"▁riders":9648,"▁Murphy":9649,"▁faster":9650,"▁mental":9651,"lings":9652,"otton":9653,"▁ABC":9654,"▁acceler":9655,"ocking":9656,"▁northward":9657,"▁exhibition":9658,"▁kit":9659,"▁meat":9660,"▁synd":9661,"asts":9662,"▁surge":9663,"▁Na":9664,"▁frame":9665,"▁distinguished":9666,"▁plus":9667,"▁evolved":9668,"▁spotted":9669,"eton":9670,"▁Barry":9671,"▁pace":9672,"tha":9673,"oven":9674,"▁exclud":9675,"▁Delaware":9676,"▁reaches":9677,"▁millimet":9678,"▁satellite":9679,"pha":9680,"uma":9681,"▁nominations":9682,"hu":9683,"▁triple":9684,"anton":9685,"ré":9686,"▁prepare":9687,"▁palace":9688,"▁application":9689,"▁agency":9690,"▁Oklahoma":9691,"▁gate":9692,"▁Federation":9693,"EC":9694,"▁wreck":9695,"▁Tel":9696,"inations":9697,"▁quarterback":9698,"▁dominant":9699,"▁storage":9700,"▁tex":9701,"▁households":9702,"▁armour":9703,"sequently":9704,"ruption":9705,"▁carriers":9706,"▁Clar":9707,"▁Original":9708,"▁protein":9709,"▁subspecies":9710,"▁predicted":9711,"▁autobi":9712,"▁Rat":9713,"▁02":9714,"▁typhoon":9715,"▁1903":9716,"▁Bomb":9717,"▁slaves":9718,"▁155":9719,"▁attained":9720,"urer":9721,"▁blocks":9722,"▁boss":9723,"▁intellect":9724,"▁allies":9725,"▁battalions":9726,"▁1902":9727,"grade":9728,"▁printed":9729,"▁repeatedly":9730,"eland":9731,"▁abund":9732,"uki":9733,"▁predecessor":9734,"▁vast":9735,"▁Lithuan":9736,"▁thor":9737,"▁fixed":9738,"▁stores":9739,"▁strict":9740,"▁vertical":9741,"▁peaking":9742,"▁surgery":9743,"▁articles":9744,"▁Perry":9745,"▁Ridge":9746,"din":9747,"▁Mik":9748,"▁outl":9749,"▁Harv":9750,"▁tack":9751,"oned":9752,"iders":9753,"▁yield":9754,"▁Originally":9755,"▁signal":9756,"▁excellent":9757,"riptions":9758,"▁Leslie":9759,"lus":9760,"▁Ay":9761,"▁Ald":9762,"▁Fif":9763,"▁westward":9764,"▁Baseball":9765,"▁bombs":9766,"▁Baby":9767,"▁philosophy":9768,"▁illegal":9769,"IS":9770,"rose":9771,"▁disagre":9772,"ascar":9773,"imen":9774,"▁Ve":9775,"▁biographer":9776,"▁Tokyo":9777,"▁phenomen":9778,"▁adventure":9779,"▁perceived":9780,"▁pretty":9781,"▁remarked":9782,"▁Rih":9783,"vant":9784,"▁DS":9785,"▁Less":9786,"▁waiting":9787,"▁circumstances":9788,"▁Hur":9789,"icate":9790,"▁comfort":9791,"▁Denmark":9792,"▁Mother":9793,"▁useful":9794,"▁meetings":9795,"▁seriously":9796,"▁choose":9797,"▁tight":9798,"aro":9799,"▁Hann":9800,"▁curren":9801,"▁apartment":9802,"▁Jonathan":9803,"▁surrend":9804,"TW":9805,"▁civilian":9806,"▁Rico":9807,"▁coinc":9808,"itage":9809,"▁reconnaissance":9810,"▁Bernard":9811,"▁Johnny":9812,"yler":9813,"aughters":9814,"▁sket":9815,"▁Players":9816,"▁Campaign":9817,"▁Atlanta":9818,"▁Territ":9819,"▁drugs":9820,"▁101":9821,"▁sick":9822,"▁gust":9823,"rings":9824,"▁Roll":9825,"▁Rihanna":9826,"▁Chel":9827,"▁phone":9828,"▁dollar":9829,"▁Abbey":9830,"apolis":9831,"▁layer":9832,"▁breat":9833,"▁Ton":9834,"▁whilst":9835,"▁chamber":9836,"▁retain":9837,"azing":9838,"▁readers":9839,"▁institution":9840,"▁Pil":9841,"▁Juan":9842,"▁casting":9843,"emen":9844,"▁Wor":9845,"▁Nixon":9846,"▁rub":9847,"▁friendship":9848,"▁holid":9849,"▁similarly":9850,"▁visiting":9851,"▁strengthened":9852,"▁matters":9853,"▁tiss":9854,"rik":9855,"LC":9856,"estone":9857,"▁alive":9858,"▁demanded":9859,"▁horn":9860,"▁Maj":9861,"▁planets":9862,"mi":9863,"ng":9864,"rint":9865,"▁Chen":9866,"esses":9867,"▁Edwards":9868,"▁Inn":9869,"▁simultaneously":9870,"inian":9871,"▁168":9872,"▁legacy":9873,"▁enlisted":9874,"jan":9875,"mingham":9876,"▁panel":9877,"arth":9878,"▁alternate":9879,"▁Pitts":9880,"▁Arnold":9881,"▁McM":9882,"onomy":9883,"▁empt":9884,"▁insisted":9885,"▁Opp":9886,"▁Railroad":9887,"▁Wag":9888,"▁shipping":9889,"▁bombing":9890,"▁revers":9891,"estyle":9892,"▁Keith":9893,"gro":9894,"▁lanes":9895,"acc":9896,"▁justice":9897,"▁Soul":9898,"▁hook":9899,"▁Ral":9900,"▁Rub":9901,"▁Lex":9902,"▁demands":9903,"▁mainland":9904,"▁neighb":9905,"rov":9906,"▁revenue":9907,"▁Madag":9908,"▁athletes":9909,"▁Prize":9910,"▁Iran":9911,"▁promised":9912,"▁Jimmy":9913,"PA":9914,"entle":9915,"▁roots":9916,"▁portions":9917,"aration":9918,"▁console":9919,"ghan":9920,"▁Sem":9921,"▁personally":9922,"▁struggled":9923,"regation":9924,"▁guilty":9925,"▁looks":9926,"▁drivers":9927,"▁Internet":9928,"▁guitarist":9929,"▁definition":9930,"▁continu":9931,"▁propag":9932,"▁pione":9933,"▁backed":9934,"▁Micro":9935,"lain":9936,"▁behaviour":9937,"▁Rachel":9938,"▁orchestra":9939,"acre":9940,"▁armies":9941,"▁audition":9942,"▁diver":9943,"▁Pars":9944,"▁sung":9945,"▁Cost":9946,"otyp":9947,"▁Jar":9948,"▁artific":9949,"iti":9950,"▁Vik":9951,"▁jobs":9952,"▁Furthermore":9953,"▁Shaw":9954,"▁demolished":9955,"▁Yankees":9956,"▁μ":9957,"odox":9958,"▁166":9959,"▁oblig":9960,"▁Tracy":9961,"arant":9962,"▁theater":9963,"▁starring":9964,"▁indu":9965,"▁Bach":9966,"▁Lost":9967,"agh":9968,"▁marketing":9969,"▁Hugh":9970,"▁Fel":9971,"▁conspir":9972,"itis":9973,"▁ruling":9974,"▁essential":9975,"▁Birmingham":9976,"▁dancing":9977,"azines":9978,"▁believing":9979,"▁feels":9980,"▁Comple":9981,"▁surpass":9982,"▁Constant":9983,"▁pursue":9984,"▁organisation":9985,"▁profile":9986,"▁Gray":9987,"▁Eventually":9988,"▁Fat":9989,"inding":9990,"▁counties":9991,"▁punk":9992,"▁compens":9993,"▁heading":9994,"▁Mans":9995,"atern":9996,"▁Canter":9997,"▁McCartney":9998,"ication":9999,"▁Nine":10000,"▁obst":10001,"▁factory":10002,"▁Impact":10003,"▁bonus":10004,"avery":10005,"▁cup":10006,"▁mining":10007,"▁increases":10008,"▁compliment":10009,"▁Obama":10010,"▁Universal":10011,"folk":10012,"▁109":10013,"▁Defence":10014,"▁Sak":10015,"▁discont":10016,"raction":10017,"▁forecast":10018,"▁discovers":10019,"▁delivery":10020,"▁pages":10021,"apped":10022,"▁expression":10023,"ouver":10024,"▁Sig":10025,"umps":10026,"▁erected":10027,"▁clothing":10028,"▁patron":10029,"▁Jup":10030,"▁elevation":10031,"▁Buddh":10032,"▁affect":10033,"▁Enterprise":10034,"▁succeed":10035,"▁sq":10036,"▁Baker":10037,"▁ports":10038,"▁Bobby":10039,"▁mobile":10040,"▁salt":10041,"▁Hudson":10042,"▁Phoenix":10043,"▁multipl":10044,"fle":10045,"▁sad":10046,"▁K.":10047,"▁secretary":10048,"▁Tol":10049,"▁Si":10050,"▁Kl":10051,"▁173":10052,"cles":10053,"▁stick":10054,"▁orn":10055,"▁Potter":10056,"▁overseas":10057,"▁Pearl":10058,"py":10059,"▁Publ":10060,"▁engage":10061,"▁doubt":10062,"ultan":10063,"▁crest":10064,"▁horiz":10065,"▁acou":10066,"▁mayor":10067,"▁Wayne":10068,"▁Karl":10069,"▁defences":10070,"▁Connectic":10071,"▁drink":10072,"▁democr":10073,"▁deterior":10074,"▁Madagascar":10075,"▁kiss":10076,"▁Peace":10077,"tario":10078,"▁accum":10079,"▁Rights":10080,"▁Todd":10081,"▁Girls":10082,"▁Connecticut":10083,"▁altered":10084,"▁settlers":10085,"bird":10086,"inces":10087,"▁NAS":10088,"irty":10089,"▁renov":10090,"▁baby":10091,"owed":10092,"▁chest":10093,"aux":10094,"▁Bosn":10095,"OS":10096,"▁pale":10097,"▁Hold":10098,"▁Ontario":10099,"▁expand":10100,"▁objective":10101,"▁Morrison":10102,"▁Works":10103,"▁stress":10104,"ello":10105,"▁cancel":10106,"▁Deb":10107,"▁legislature":10108,"▁Canterbury":10109,"▁highways":10110,"shore":10111,"▁listen":10112,"warf":10113,"ensively":10114,"▁conversion":10115,"▁Friday":10116,"mat":10117,"oons":10118,"▁Patt":10119,"▁voy":10120,"▁Kit":10121,"▁musician":10122,"▁Community":10123,"mund":10124,"▁wrestling":10125,"asant":10126,"▁Diam":10127,"▁Manu":10128,"irts":10129,"▁152":10130,"▁soldier":10131,"▁campaigns":10132,"▁aerial":10133,"stan":10134,"▁Ran":10135,"acked":10136,"▁disl":10137,"▁organised":10138,"▁indicating":10139,"▁compounds":10140,"oker":10141,"▁raising":10142,"pent":10143,"▁Goth":10144,"▁aftermath":10145,"▁decisions":10146,"▁Allies":10147,"▁Leonard":10148,"▁Napoleon":10149,"rous":10150,"▁Farm":10151,"aks":10152,"▁raids":10153,"▁sitting":10154,"▁concentration":10155,"aments":10156,"▁scen":10157,"▁Spart":10158,"▁solar":10159,"▁Boys":10160,"▁turret":10161,"ratropical":10162,"▁dissipated":10163,"▁happ":10164,"▁trouble":10165,"yrus":10166,"▁liquid":10167,"▁hidden":10168,"▁prove":10169,"▁Foreign":10170,"▁Cycl":10171,"▁wealthy":10172,"▁AS":10173,"▁Bath":10174,"ulous":10175,"ifies":10176,"▁radical":10177,"▁acknowledged":10178,"▁realized":10179,"▁striking":10180,"▁Lat":10181,"▁dressed":10182,"▁TNA":10183,"▁exactly":10184,"▁appropriate":10185,"oa":10186,"▁anth":10187,"▁danger":10188,"▁Py":10189,"▁confron":10190,"▁improvements":10191,"▁permitted":10192,"▁Pruss":10193,"▁Mountains":10194,"▁chapel":10195,"▁execution":10196,"▁Kan":10197,"▁Windows":10198,"▁Griff":10199,"▁Ted":10200,"▁Laur":10201,"▁publications":10202,"▁ski":10203,"▁graduated":10204,"▁aggressive":10205,"▁evacuated":10206,"▁removal":10207,"▁encl":10208,"▁fewer":10209,"▁interpretation":10210,"▁profit":10211,"▁celebrated":10212,".e":10213,"▁bones":10214,"▁sharp":10215,"▁Ze":10216,"▁venue":10217,"▁observations":10218,"▁Dall":10219,"▁Champion":10220,"▁meter":10221,"▁initiated":10222,"▁mac":10223,"otte":10224,"▁travels":10225,"▁theatrical":10226,"▁net":10227,"▁Gary":10228,"▁Legend":10229,"uese":10230,"▁Outstanding":10231,"▁UEFA":10232,"OT":10233,"▁Season":10234,"▁sky":10235,"▁stationed":10236,"inister":10237,"▁lin":10238,"atus":10239,"ivation":10240,"▁Vanc":10241,"▁cannon":10242,"▁tort":10243,"▁founding":10244,"itals":10245,"▁defending":10246,"▁requires":10247,"▁rebellion":10248,"▁publishing":10249,"▁originated":10250,"▁steps":10251,"itudes":10252,"▁Vancouver":10253,"▁origins":10254,"▁considering":10255,"▁jurisd":10256,"▁Lion":10257,"▁establishing":10258,"run":10259,"▁debt":10260,"▁Jupiter":10261,"olly":10262,"▁extratropical":10263,"▁Symph":10264,"▁connect":10265,"adal":10266,"▁Gate":10267,"ipper":10268,"▁explan":10269,"▁brill":10270,"▁strategic":10271,"▁mush":10272,"▁Triple":10273,"ugg":10274,"▁172":10275,"▁Mint":10276,"▁youngest":10277,"▁supple":10278,"▁Tit":10279,"▁Mem":10280,"▁approaching":10281,"▁Drive":10282,"adier":10283,"▁Pap":10284,"rapped":10285,"▁arrangements":10286,"▁fantasy":10287,"▁placing":10288,"▁shorter":10289,"▁Abd":10290,"▁cutting":10291,"▁Edin":10292,"▁announcement":10293,"▁guarant":10294,"▁magazines":10295,"▁walking":10296,"▁Champions":10297,"▁104":10298,"▁donated":10299,"itively":10300,"▁lying":10301,"annon":10302,"▁Administration":10303,"▁Lib":10304,"ennium":10305,"autical":10306,"phone":10307,"▁err":10308,"▁connecting":10309,"▁hosts":10310,"▁aspect":10311,"▁Pakistan":10312,"▁memor":10313,"▁ongoing":10314,"▁Stu":10315,"▁magic":10316,"▁Cov":10317,"ais":10318,"hears":10319,"▁discussion":10320,"▁ing":10321,"▁Our":10322,"▁edited":10323,"▁e.":10324,"▁Len":10325,"aja":10326,"▁Bradman":10327,"▁talent":10328,"▁Portuguese":10329,"▁Æthel":10330,"▁funny":10331,"▁closest":10332,"▁insects":10333,"▁strongest":10334,"ecution":10335,"▁colleagues":10336,"▁cub":10337,"▁Ship":10338,"▁glac":10339,"▁putting":10340,"▁tubes":10341,"hous":10342,"fts":10343,"▁mal":10344,"▁qualified":10345,"▁withdrawal":10346,"asa":10347,"▁Alice":10348,"▁landscape":10349,"▁rede":10350,"▁gathered":10351,"▁forth":10352,"▁decide":10353,"▁battlecru":10354,"▁volumes":10355,"▁predict":10356,"▁hypothes":10357,"▁Dwight":10358,"▁identify":10359,"▁angle":10360,"▁NCAA":10361,"▁collapsed":10362,"▁switch":10363,"▁circle":10364,"▁indicates":10365,"▁Trophy":10366,"▁challenged":10367,"▁Mong":10368,"▁Gene":10369,"▁Joy":10370,"▁desert":10371,"venth":10372,"▁Isa":10373,"▁merely":10374,"▁gray":10375,"▁forg":10376,"▁coup":10377,"▁supplied":10378,"bow":10379,"▁Anc":10380,"▁confront":10381,"▁markets":10382,"▁1893":10383,"odge":10384,"▁caps":10385,"▁watershed":10386,"onium":10387,"▁Type":10388,"▁beam":10389,"earing":10390,"▁partial":10391,"▁exposure":10392,"atra":10393,"▁les":10394,"elta":10395,"▁Fleming":10396,"▁Meteor":10397,"▁density":10398,"▁neighbour":10399,"▁specimen":10400,"▁Reserve":10401,"▁Honor":10402,"▁conventional":10403,"▁Ches":10404,"▁Dub":10405,"▁Marvel":10406,"enna":10407,"▁1896":10408,"▁bare":10409,"▁brig":10410,"▁Mission":10411,"▁Years":10412,"avel":10413,"▁plain":10414,"▁limits":10415,"▁Pam":10416,"anner":10417,"▁dubbed":10418,"▁shift":10419,"▁spac":10420,"▁hydrogen":10421,"▁Hampshire":10422,"join":10423,"agger":10424,"▁visits":10425,"▁corps":10426,"▁concentrated":10427,"igenous":10428,"▁membership":10429,"▁Afghan":10430,"▁Oliver":10431,"▁feeding":10432,"▁navy":10433,"ieth":10434,"▁annually":10435,"▁educational":10436,"▁Edinburgh":10437,"▁cock":10438,"▁exha":10439,"▁Stri":10440,"g.":10441,"▁Bak":10442,"▁bearing":10443,"▁Those":10444,"▁topped":10445,"soft":10446,"▁provision":10447,"▁seized":10448,"▁assembly":10449,"▁Flying":10450,"▁clin":10451,"▁prize":10452,"▁Tob":10453,"otal":10454,"ocy":10455,"iper":10456,"▁127":10457,"▁ranges":10458,"▁trough":10459,"▁Somet":10460,"irates":10461,"ista":10462,"▁Beng":10463,"▁1898":10464,"▁attending":10465,"athers":10466,"▁marry":10467,"▁parody":10468,"▁emphasis":10469,"▁Mosc":10470,"▁champions":10471,"▁duo":10472,"▁Victorian":10473,"▁Say":10474,"▁Natural":10475,"▁Princip":10476,"amental":10477,"ür":10478,"▁legit":10479,"▁Charts":10480,"▁bacter":10481,"▁Tig":10482,"hard":10483,"▁Where":10484,"▁offense":10485,"▁productions":10486,"▁investigate":10487,"▁dogs":10488,"▁furn":10489,"arr":10490,"▁111":10491,"▁Begin":10492,"▁weekly":10493,"▁basin":10494,"▁Finally":10495,"uzzle":10496,"▁Pin":10497,"▁talking":10498,"▁350":10499,"▁exercise":10500,"▁anime":10501,"▁Beaut":10502,"▁bone":10503,"▁unless":10504,"▁jury":10505,"▁Monte":10506,"▁Democrats":10507,"▁ticket":10508,"onica":10509,"▁List":10510,"▁Kap":10511,"▁resol":10512,"▁Meg":10513,"▁Personal":10514,"▁N.":10515,"▁promotional":10516,"▁flooded":10517,"▁Turner":10518,"▁fill":10519,"▁bond":10520,"▁Maya":10521,"▁cruc":10522,"▁Celt":10523,"assador":10524,"▁Yorkshire":10525,"▁ceased":10526,"oys":10527,"▁Ralph":10528,"terior":10529,"▁fortress":10530,"▁advertising":10531,"▁employment":10532,"▁stere":10533,"▁Lloyd":10534,"▁MS":10535,"▁regime":10536,"▁persons":10537,"▁birthday":10538,"▁portrayal":10539,"▁Argentina":10540,"erk":10541,"▁uncle":10542,"ported":10543,"▁Ax":10544,"▁Mand":10545,"▁uncom":10546,"▁queen":10547,"▁Overall":10548,"▁underwent":10549,"▁Ko":10550,"▁attitude":10551,"rising":10552,"▁invent":10553,"▁Pink":10554,"▁Om":10555,"▁scattered":10556,"▁output":10557,"▁coff":10558,"▁sending":10559,"▁Village":10560,"▁photographs":10561,"▁eval":10562,"▁conservation":10563,"▁1940s":10564,"pled":10565,"▁Convention":10566,"▁hitting":10567,"▁Christianity":10568,"ayan":10569,"▁ballad":10570,"▁experimental":10571,"▁assembled":10572,"▁Brothers":10573,"▁Tak":10574,"▁mature":10575,"▁guide":10576,"▁questioned":10577,"aft":10578,"rawn":10579,"▁commentary":10580,"▁overwhel":10581,"aders":10582,"▁163":10583,"▁drinking":10584,"▁bishop":10585,"ashes":10586,"ović":10587,"▁imagery":10588,"▁software":10589,"▁Lt":10590,"▁external":10591,"▁1899":10592,"▁Jerry":10593,"▁Craig":10594,"▁Haz":10595,"▁endors":10596,"▁provincial":10597,"▁replied":10598,"▁terrain":10599,"▁unclear":10600,"▁Prop":10601,"▁Kam":10602,"▁translation":10603,"▁aggreg":10604,"▁Chronicle":10605,"▁Fund":10606,"▁outd":10607,"▁proclaim":10608,"haw":10609,"▁lawyer":10610,"▁Prim":10611,"hammad":10612,"▁swimming":10613,"▁wire":10614,"▁papers":10615,"ications":10616,"▁clock":10617,"hin":10618,"▁comprom":10619,"ologies":10620,"▁thirteen":10621,"▁liberal":10622,"▁empire":10623,"▁Collins":10624,"▁cens":10625,"▁trail":10626,"▁representatives":10627,"rapy":10628,"▁Marge":10629,"▁lawsu":10630,"▁Books":10631,"▁cousin":10632,"▁Cad":10633,"▁coat":10634,"▁Eug":10635,"err":10636,"idal":10637,"▁streak":10638,"▁wait":10639,"ersed":10640,"▁shr":10641,"▁burial":10642,"▁Queensland":10643,"▁Apoll":10644,"▁monaster":10645,"▁Finland":10646,"▁pictures":10647,"▁loved":10648,"▁duration":10649,"amas":10650,"▁Lock":10651,"▁Andre":10652,"▁acoustic":10653,"ioc":10654,"▁Glen":10655,"▁movies":10656,"▁slave":10657,"▁expert":10658,"▁devast":10659,"▁penet":10660,"▁exclusive":10661,"OK":10662,"▁sang":10663,"▁Gor":10664,"▁stronger":10665,"▁electricity":10666,"▁accompanying":10667,"▁branches":10668,"▁108":10669,"▁Howe":10670,"▁surrendered":10671,"▁arrives":10672,"▁daughters":10673,"imm":10674,"▁beats":10675,"▁identical":10676,"▁reinforcements":10677,"▁cad":10678,"aman":10679,"▁tenure":10680,"▁Hardy":10681,"▁Pad":10682,"▁Wii":10683,"ensed":10684,"owski":10685,"▁Similarly":10686,"▁Boat":10687,"atever":10688,"▁Norfolk":10689,"▁succession":10690,"▁reveal":10691,"▁dread":10692,"place":10693,"▁Jun":10694,"pler":10695,"▁charter":10696,"▁Protest":10697,"▁Hawaii":10698,"▁reverse":10699,"▁Sle":10700,"▁Heritage":10701,"▁reducing":10702,"▁destroying":10703,"▁push":10704,"riors":10705,"▁components":10706,"▁169":10707,"ricts":10708,"▁Professor":10709,"▁prices":10710,"rod":10711,"▁Sign":10712,"▁Ric":10713,"▁Jama":10714,"ellation":10715,"▁Burton":10716,"▁Services":10717,"▁e.g.":10718,"▁prev":10719,"▁trading":10720,"▁Donald":10721,"▁Nicholas":10722,"▁exclusively":10723,"▁Din":10724,"▁component":10725,"▁scar":10726,"▁recall":10727,"▁myst":10728,"▁Belgian":10729,"erg":10730,"illes":10731,"▁failing":10732,"▁sleep":10733,"▁spaces":10734,"▁competing":10735,"▁mechanical":10736,"▁Communist":10737,"▁tomb":10738,".e.":10739,"▁governments":10740,"olen":10741,"▁stops":10742,"▁Dak":10743,"▁counterp":10744,"▁isot":10745,"ibilities":10746,"eyer":10747,"▁quad":10748,"enesis":10749,"▁Rangers":10750,"▁Bennett":10751,"▁precipitation":10752,"▁Catherine":10753,"itarian":10754,"▁Vincent":10755,"▁atomic":10756,"angel":10757,"▁polar":10758,"▁pole":10759,"▁flowers":10760,"onian":10761,"▁reward":10762,"abe":10763,"▁slavery":10764,"▁dict":10765,"▁Cricket":10766,"▁obsc":10767,"▁Training":10768,"▁banned":10769,"▁Thunder":10770,"▁developers":10771,"▁Davies":10772,"▁Medical":10773,"▁centers":10774,"▁mini":10775,"▁Emmy":10776,"▁devices":10777,"▁fossil":10778,"case":10779,"hell":10780,"▁wish":10781,"▁Dram":10782,"▁Ni":10783,"▁traded":10784,"▁Credits":10785,"esty":10786,"▁Deep":10787,"▁varied":10788,"▁elig":10789,"▁contribution":10790,"▁Transportation":10791,"▁Malt":10792,"▁Yellow":10793,"▁consistent":10794,"▁waste":10795,"▁Rud":10796,"▁burned":10797,"▁redes":10798,"▁i.e.":10799,"IV":10800,"uras":10801,"▁vs.":10802,"▁incom":10803,"▁confirm":10804,"▁platforms":10805,"▁Liberal":10806,"▁Local":10807,"▁pel":10808,"▁Lem":10809,"▁considers":10810,"▁Swift":10811,"legraph":10812,"▁Tax":10813,"▁Hob":10814,"▁Living":10815,"▁architectural":10816,"▁artificial":10817,"▁ow":10818,"ethel":10819,"▁Look":10820,"▁radiation":10821,"▁tube":10822,"▁bath":10823,"▁hybrid":10824,"▁intersects":10825,"▁talks":10826,"▁earthquake":10827,"▁humor":10828,"▁Hughes":10829,"▁songwriter":10830,"▁fourteen":10831,"▁Guitar":10832,"▁virus":10833,"▁Fu":10834,"▁disb":10835,"▁Scientology":10836,"▁Curt":10837,"rastructure":10838,"▁Must":10839,"▁proceeded":10840,"▁CO":10841,"▁lie":10842,"▁boilers":10843,"▁electrical":10844,"▁frequency":10845,"▁Next":10846,"▁Harvard":10847,"gs":10848,"pike":10849,"▁weigh":10850,"rost":10851,"▁ecc":10852,"▁airfield":10853,"▁advised":10854,"▁reviewed":10855,"▁1897":10856,"▁Market":10857,"▁understood":10858,"acles":10859,"▁heir":10860,"▁destroyer":10861,"▁profession":10862,"▁Prix":10863,"▁amateur":10864,"▁Darwin":10865,"▁improvement":10866,"▁Peters":10867,"▁conflic":10868,"▁handled":10869,"onald":10870,"▁AM":10871,"▁Dyn":10872,"▁texts":10873,"▁copper":10874,"encing":10875,"▁induct":10876,"▁rein":10877,"▁conceived":10878,"umble":10879,"▁Gallery":10880,"mith":10881,"▁nit":10882,"▁Bald":10883,"▁106":10884,"▁Blu":10885,"▁Harbor":10886,"▁Swiss":10887,"▁requirements":10888,"ön":10889,"▁Ara":10890,"▁sixteen":10891,"▁Indonesia":10892,"▁samples":10893,"ensis":10894,"▁portr":10895,"▁referring":10896,"▁Saxon":10897,"TS":10898,"bal":10899,"▁phrase":10900,"uating":10901,"itely":10902,"▁shares":10903,"▁charity":10904,"▁Moscow":10905,"▁theore":10906,"▁investment":10907,"▁respective":10908,"▁tactics":10909,"▁JTW":10910,"▁JTWC":10911,"asm":10912,"▁recon":10913,"▁reduction":10914,"rehens":10915,"eding":10916,"▁cleared":10917,"▁Cameron":10918,"▁Som":10919,"eto":10920,"▁Kate":10921,"ulty":10922,"▁users":10923,"▁voting":10924,"▁parks":10925,"▁certainly":10926,"▁Oslo":10927,"strong":10928,"▁167":10929,"▁praising":10930,"▁worn":10931,"▁Inv":10932,"▁Geoff":10933,"▁photography":10934,"▁Pittsburgh":10935,"▁soph":10936,"▁lock":10937,"▁154":10938,"▁grossing":10939,"▁Pic":10940,"▁connections":10941,"▁labour":10942,"▁constitutional":10943,"MI":10944,"▁exceed":10945,"axy":10946,"▁Phys":10947,"▁ruler":10948,"▁flows":10949,"▁spoken":10950,"▁toured":10951,"▁autumn":10952,"etheless":10953,"▁commenced":10954,"▁commanding":10955,"▁qualifying":10956,"▁fold":10957,"ingham":10958,"▁Craw":10959,"▁signature":10960,"tery":10961,"avor":10962,"ffield":10963,"▁blind":10964,"▁tonnes":10965,"▁Tow":10966,"▁attorney":10967,"▁continuous":10968,"▁shoulder":10969,"▁survival":10970,"▁transported":10971,"▁sweet":10972,"▁unlik":10973,"▁reorgan":10974,"▁Terry":10975,"rh":10976,"▁fasc":10977,"▁nautical":10978,"▁stuff":10979,"▁Upper":10980,"▁legislative":10981,"gom":10982,"▁fisher":10983,"▁AP":10984,"▁Broadcast":10985,"OC":10986,"icated":10987,"▁unw":10988,"▁Ali":10989,"▁Alaska":10990,"▁confidence":10991,"ean":10992,"▁exists":10993,"▁Antonio":10994,"▁taxes":10995,"▁Wallace":10996,"▁enthusi":10997,"▁Mond":10998,"▁communist":10999,"▁patients":11000,"▁opportunities":11001,"▁melody":11002,"▁Sweet":11003,"▁Mason":11004,"▁Rest":11005,"▁rocks":11006,"▁Mend":11007,"▁PS":11008,"▁tested":11009,"▁relocated":11010,"▁camps":11011,"▁competitive":11012,"▁Mayor":11013,"▁revolt":11014,"hum":11015,"▁Still":11016,"porting":11017,"▁dece":11018,"▁Aftermath":11019,"▁reinforced":11020,"▁fulf":11021,"ario":11022,"▁withdrawn":11023,"▁Microsoft":11024,"▁Clay":11025,"ambers":11026,"▁uranium":11027,"▁moon":11028,"pot":11029,"▁Emer":11030,"▁indeed":11031,"ashi":11032,"▁Syria":11033,"▁minority":11034,"▁translated":11035,"▁fairly":11036,"▁nat":11037,"▁'A":11038,"▁Got":11039,"▁commanders":11040,"illo":11041,"▁explicit":11042,"▁Stef":11043,"▁revised":11044,"▁traveling":11045,"▁Trail":11046,"▁Past":11047,"▁Vel":11048,"▁blues":11049,"minster":11050,"▁sovereign":11051,"▁pairs":11052,"▁Sid":11053,"▁Ent":11054,"▁impression":11055,"▁1890":11056,"▁cartoon":11057,"▁Cass":11058,"▁HD":11059,"oca":11060,"▁manga":11061,"expected":11062,"▁Ori":11063,"cester":11064,"bes":11065,"▁Security":11066,"▁Grace":11067,"▁Richmond":11068,"▁noble":11069,"avia":11070,"▁Adv":11071,"▁fram":11072,"▁uncon":11073,"▁See":11074,"▁displaced":11075,"▁crops":11076,"▁enforce":11077,"▁RP":11078,"▁Exper":11079,"▁programming":11080,"▁extending":11081,"eared":11082,"▁Aer":11083,"▁Ec":11084,"▁Sheffield":11085,"▁promin":11086,"▁Officer":11087,"uto":11088,"▁Larry":11089,"▁compound":11090,"▁accord":11091,"▁principles":11092,"oda":11093,"▁Stars":11094,"anger":11095,"▁amph":11096,"▁warfare":11097,"▁provinces":11098,"where":11099,"▁chron":11100,"▁Classic":11101,"▁Malaysia":11102,"▁dischar":11103,"ussion":11104,"▁experiments":11105,"▁prisoner":11106,"▁voices":11107,"isive":11108,"asks":11109,"▁hole":11110,"▁Half":11111,"urricanes":11112,"car":11113,"tes":11114,"▁pap":11115,"▁carries":11116,"▁Luke":11117,"▁Israeli":11118,"ye":11119,"seud":11120,"▁extinct":11121,"▁1895":11122,"▁Ru":11123,"▁characteristic":11124,"▁culmin":11125,"▁Dallas":11126,"▁Fr":11127,"▁conce":11128,"▁distant":11129,"▁learns":11130,"▁Tai":11131,"▁Guinea":11132,"▁representation":11133,"▁catal":11134,"▁magnitude":11135,"▁Pictures":11136,"▁interpreted":11137,"cott":11138,"▁wonder":11139,"▁craft":11140,"▁Herald":11141,"▁summ":11142,"▁Jefferson":11143,"▁lights":11144,"▁rivalry":11145,"▁Together":11146,"▁Osc":11147,"▁171":11148,"▁sample":11149,"▁relatives":11150,"▁marine":11151,"▁approaches":11152,"▁nerv":11153,"▁abuse":11154,"▁GameS":11155,"▁FBI":11156,"umph":11157,"uez":11158,"aching":11159,"▁Sega":11160,"▁Johnston":11161,"▁Austin":11162,"▁victim":11163,"lad":11164,"itious":11165,"▁practical":11166,"▁Official":11167,"▁cyclones":11168,"▁Bryan":11169,"▁Clarke":11170,"zed":11171,"▁Owen":11172,"▁Performance":11173,"rooms":11174,"utton":11175,"▁herit":11176,"▁Eight":11177,"▁Chile":11178,"▁shifted":11179,"▁march":11180,"▁transportation":11181,"▁Cyrus":11182,"▁Daw":11183,"▁cuts":11184,"▁displays":11185,"▁Mix":11186,"▁hem":11187,"▁warnings":11188,"▁restore":11189,"▁lighting":11190,"▁Woman":11191,"▁Hey":11192,"▁skill":11193,"▁blocked":11194,"▁burning":11195,"▁Falls":11196,"▁id":11197,"▁CS":11198,"▁mans":11199,"▁102":11200,"▁Quest":11201,"▁thunder":11202,"▁bull":11203,"▁rehears":11204,"▁AT":11205,"▁Eis":11206,"▁myster":11207,"▁judg":11208,"▁Defense":11209,"▁Wells":11210,"▁Orange":11211,"▁chore":11212,"▁airing":11213,"▁traditions":11214,"▁Steel":11215,"▁rebels":11216,"▁preparing":11217,"▁proposals":11218,"iciency":11219,"▁Nev":11220,"▁participation":11221,"▁medicine":11222,"▁sings":11223,"ags":11224,"▁Neil":11225,"▁graduate":11226,"▁girlfriend":11227,"NC":11228,"ationally":11229,"▁Studio":11230,"▁absent":11231,"▁Parsons":11232,"▁districts":11233,"umped":11234,"▁web":11235,"▁Priv":11236,"▁scores":11237,"▁multiplayer":11238,"▁Sac":11239,"urd":11240,"▁Nord":11241,"merce":11242,"▁121":11243,"▁interviews":11244,"▁Greater":11245,"▁unlikely":11246,"▁pier":11247,"▁conven":11248,"▁protests":11249,"▁valuable":11250,"▁estimates":11251,"▁Armstrong":11252,"▁Liter":11253,"ocity":11254,"▁salv":11255,"▁filmm":11256,"▁Description":11257,"▁brilliant":11258,"▁Hav":11259,"eston":11260,"▁riding":11261,"▁salary":11262,"▁Chelsea":11263,"▁wished":11264,"aters":11265,"berry":11266,"▁Formation":11267,"▁maintaining":11268,"▁creek":11269,"onge":11270,"▁passion":11271,"▁Danish":11272,"▁infl":11273,"len":11274,"aha":11275,"▁Brazilian":11276,"▁Beginning":11277,"leans":11278,"▁intervention":11279,"▁courses":11280,"▁drummer":11281,"▁recovery":11282,"▁aft":11283,"▁Fisher":11284,"▁Actor":11285,"▁arguing":11286,"▁Fourth":11287,"▁reforms":11288,"▁cabinet":11289,"▁fest":11290,"▁contend":11291,"▁162":11292,"▁Greatest":11293,"▁McKin":11294,"▁Yam":11295,"▁Rena":11296,"▁Eve":11297,"▁Quebec":11298,"▁petition":11299,"▁cinema":11300,"▁recurring":11301,"▁garn":11302,"▁clar":11303,"▁racial":11304,"▁Eth":11305,"▁Agency":11306,"▁grandfather":11307,"▁beneath":11308,"▁Kaiser":11309,"▁accurate":11310,"▁vulnerable":11311,"▁Amb":11312,"▁upset":11313,"▁communications":11314,"▁Rio":11315,"▁decorated":11316,"▁Spirit":11317,"▁Authority":11318,"aze":11319,"▁kills":11320,"▁significance":11321,"▁NS":11322,"▁Eff":11323,"▁numbered":11324,"▁advertis":11325,"lete":11326,"▁eating":11327,"▁Ga":11328,"ource":11329,"achute":11330,"▁releg":11331,"▁diverse":11332,"▁O.":11333,"▁statistics":11334,"▁Cathedral":11335,"▁towers":11336,"▁Constantin":11337,"▁Salt":11338,"▁Il":11339,"▁Link":11340,"aser":11341,"▁valid":11342,"▁Gay":11343,"▁Plant":11344,"uri":11345,"▁Susan":11346,"▁sponsored":11347,"▁squadrons":11348,"▁Vers":11349,"▁cant":11350,"▁clothes":11351,"osexual":11352,"▁Reich":11353,"▁paras":11354,"▁Orleans":11355,"beat":11356,"▁shallow":11357,"▁answ":11358,"▁′":11359,"▁hind":11360,"▁Jr.":11361,"▁surve":11362,"▁applications":11363,"▁unexpected":11364,"iar":11365,"▁toler":11366,"▁Ivan":11367,"▁Poly":11368,"▁steep":11369,"▁Junior":11370,"abilities":11371,"▁shock":11372,"▁sacrif":11373,"▁Globe":11374,"▁Utah":11375,"erver":11376,"utor":11377,"▁Kane":11378,"▁consolid":11379,"▁158":11380,"▁efficient":11381,"▁1861":11382,"▁Cultural":11383,"ME":11384,"▁inclusion":11385,"▁airline":11386,"▁Harold":11387,"▁lasting":11388,"nt":11389,"landers":11390,"▁faces":11391,"▁morph":11392,"wright":11393,"itate":11394,"▁CBS":11395,"ipped":11396,"▁iP":11397,"▁essentially":11398,"▁answer":11399,"▁Sug":11400,"▁1889":11401,"▁Serbian":11402,"oting":11403,"▁surprised":11404,"▁161":11405,"▁summit":11406,"▁FIFA":11407,"▁tale":11408,"▁mate":11409,"ucker":11410,"▁pm":11411,"▁mood":11412,"▁gender":11413,"▁Scar":11414,"▁113":11415,"▁MI":11416,"▁jet":11417,"affe":11418,"▁deeply":11419,"ATO":11420,"rary":11421,"▁charted":11422,"▁emotion":11423,"▁civilians":11424,"▁liner":11425,"▁chronic":11426,"▁Province":11427,"▁potentially":11428,"▁ratio":11429,"▁Panzer":11430,"▁beaten":11431,"▁Muhammad":11432,"hers":11433,"▁1894":11434,"mn":11435,"▁Newton":11436,"▁drafted":11437,"▁suspic":11438,"▁grave":11439,"oria":11440,"▁fate":11441,"keeper":11442,"▁manage":11443,"▁theories":11444,"▁ho":11445,"levard":11446,"reated":11447,"anche":11448,"▁beauty":11449,"asha":11450,"▁merged":11451,"▁Stuart":11452,"ét":11453,"▁Republicans":11454,"▁dancers":11455,"aiden":11456,"▁1000":11457,"▁crimes":11458,"dess":11459,"▁dense":11460,"▁Sout":11461,"▁beating":11462,"▁Minor":11463,"▁Constantine":11464,"▁segments":11465,"▁hills":11466,"▁153":11467,"▁proportion":11468,"▁tours":11469,"▁Tyler":11470,"opp":11471,"▁processes":11472,"▁demo":11473,"▁sentence":11474,"Arthur":11475,"▁merc":11476,"vet":11477,"iko":11478,"▁descent":11479,"▁swit":11480,"castle":11481,"enson":11482,"▁1891":11483,"▁dual":11484,"▁Pok":11485,"▁reactions":11486,"▁implemented":11487,"▁scr":11488,"onsin":11489,"▁Ferr":11490,"▁Buffalo":11491,"▁Fighter":11492,"▁Ins":11493,"akh":11494,"▁sculpture":11495,"▁Picture":11496,"▁persuaded":11497,"▁heritage":11498,"▁bell":11499,"▁YouT":11500,"▁Wisc":11501,"ocation":11502,"▁funded":11503,"▁southeastern":11504,"▁manip":11505,"▁Orchest":11506,"▁boot":11507,"▁dim":11508,"▁Product":11509,"▁Indonesian":11510,"▁accommodate":11511,"▁rib":11512,"▁Bes":11513,"▁altitude":11514,"és":11515,"▁colors":11516,"▁Typhoon":11517,"▁columns":11518,"▁YouTube":11519,"▁Tang":11520,"▁evident":11521,"▁administer":11522,"▁structural":11523,"▁Cardiff":11524,"▁Mrs.":11525,"▁Apollo":11526,"▁wine":11527,"istent":11528,"▁followers":11529,"▁Amendment":11530,"▁presentation":11531,"▁agriculture":11532,"▁Full":11533,"▁feared":11534,"▁golden":11535,"▁complained":11536,"▁pip":11537,"aping":11538,"▁addressed":11539,"▁requiring":11540,"▁XII":11541,"▁sailing":11542,"heric":11543,"▁156":11544,"born":11545,"▁Alt":11546,"▁1892":11547,"▁tribe":11548,"▁proof":11549,"▁devoted":11550,"▁rejoin":11551,"▁Sultan":11552,"▁dwarf":11553,"▁135":11554,"▁Wa":11555,"▁Quar":11556,"▁truck":11557,"boards":11558,"▁observation":11559,"▁oriented":11560,"▁Symphony":11561,"▁nurs":11562,"▁1800":11563,"▁recept":11564,"yself":11565,"▁interaction":11566,"▁fame":11567,"▁Had":11568,"▁Days":11569,"▁Without":11570,"▁breaks":11571,"▁Hunter":11572,"▁AA":11573,"▁intermedi":11574,"▁McN":11575,"▁triang":11576,"▁operates":11577,"▁Wisconsin":11578,"▁error":11579,"▁Register":11580,"▁Conservation":11581,"▁Johann":11582,"sts":11583,"▁Kyle":11584,"▁confusion":11585,"▁superst":11586,"▁knee":11587,"▁Burns":11588,"usalem":11589,"▁Ground":11590,"rific":11591,"▁jack":11592,"▁writings":11593,"▁judges":11594,"▁pregnant":11595,"▁voyage":11596,"isons":11597,"▁Brooks":11598,"▁Mall":11599,"▁suddenly":11600,"gie":11601,"▁cards":11602,"▁pink":11603,"▁Sox":11604,"▁gene":11605,"▁Wonder":11606,"▁Until":11607,"▁Electric":11608,"▁mythology":11609,"▁kidn":11610,"▁rect":11611,"▁Aber":11612,"▁bears":11613,"▁Danny":11614,"ocket":11615,"▁extensively":11616,"▁240":11617,"▁quarters":11618,"osaurs":11619,"▁holiday":11620,"▁Walt":11621,"▁jurisdiction":11622,"▁Ruth":11623,"▁Heb":11624,"▁advancing":11625,"▁1870":11626,"▁opens":11627,"▁diplomatic":11628,"nels":11629,"▁Cavalry":11630,"▁commenting":11631,"▁researchers":11632,"V.":11633,"▁Section":11634,"oded":11635,"iously":11636,"ospel":11637,"▁Islamic":11638,"▁⁄":11639,"▁tension":11640,"▁Pant":11641,"ulus":11642,"othy":11643,"sor":11644,"▁thrown":11645,"▁Hope":11646,"▁Kid":11647,"izer":11648,"▁Metropolitan":11649,"▁embarked":11650,"▁categories":11651,"master":11652,"▁Nature":11653,"▁Actress":11654,"HS":11655,"▁sized":11656,"▁mud":11657,"anted":11658,"▁Jerusalem":11659,"▁highlighted":11660,"rob":11661,"▁Side":11662,"▁Prest":11663,"▁sugar":11664,"▁Fitz":11665,"▁Attorney":11666,"lon":11667,"▁fert":11668,"▁Titan":11669,"cliff":11670,"arks":11671,"▁knocked":11672,"▁equally":11673,"▁statements":11674,"▁drown":11675,"▁physics":11676,"▁Justin":11677,"sburg":11678,"▁tooth":11679,"amount":11680,"▁gaining":11681,"cha":11682,"▁ages":11683,"▁similarities":11684,"▁Legisl":11685,"▁challenges":11686,"urst":11687,"imp":11688,"▁assum":11689,"lington":11690,"▁Airlines":11691,"▁sentenced":11692,"▁Sonic":11693,"quest":11694,"▁infrastructure":11695,"▁principle":11696,"▁Bible":11697,"▁Gang":11698,"▁studying":11699,"▁₹":11700,"enos":11701,"▁m2":11702,"▁Trade":11703,"▁Boeing":11704,"I.":11705,"▁Meth":11706,"▁rivals":11707,"▁Abu":11708,"▁disturbance":11709,"▁Start":11710,"▁manif":11711,"▁Edition":11712,"▁lifetime":11713,"▁2000s":11714,"▁Executive":11715,"▁gh":11716,"▁gift":11717,"▁Env":11718,"▁Grade":11719,"▁1888":11720,"▁gardens":11721,"▁orange":11722,"▁overlook":11723,"▁constitu":11724,"▁universal":11725,"▁traditionally":11726,"ín":11727,"atched":11728,"▁Sud":11729,"▁locally":11730,"▁variation":11731,"▁divorce":11732,"▁rings":11733,"▁fee":11734,"▁Schum":11735,"▁educated":11736,"▁Mind":11737,"▁Based":11738,"▁Barnes":11739,"▁Patri":11740,"thodox":11741,"▁dealing":11742,"▁warships":11743,"chi":11744,"▁predators":11745,"▁Crus":11746,"pine":11747,"▁Bert":11748,"▁Und":11749,"▁explaining":11750,"▁ties":11751,"edia":11752,"▁Nas":11753,"▁Sean":11754,"▁sword":11755,"▁boundaries":11756,"▁spawn":11757,"▁resolved":11758,"▁priest":11759,"▁recruited":11760,"ancellor":11761,"▁Tu":11762,"osph":11763,"▁Cemetery":11764,"▁Independence":11765,"▁Wes":11766,"▁Miles":11767,"▁documented":11768,"▁stretch":11769,"▁empty":11770,"▁Trad":11771,"▁Bud":11772,"▁enabled":11773,"phan":11774,"▁Saturn":11775,"▁tape":11776,"▁Baron":11777,"▁1885":11778,"ulsion":11779,"zing":11780,"▁UC":11781,"ometric":11782,"▁forb":11783,"rift":11784,"▁seas":11785,"▁receives":11786,"▁Montgom":11787,"▁Turkey":11788,"▁Rogers":11789,"▁Montgomery":11790,"▁settlements":11791,"▁weakening":11792,"▁naming":11793,"▁112":11794,"▁Century":11795,"▁considerably":11796,"▁discontin":11797,"piece":11798,"▁Syn":11799,"▁hostile":11800,"▁villain":11801,"▁MacArthur":11802,"▁lift":11803,"aple":11804,"▁scre":11805,"▁Leaf":11806,"▁rescued":11807,"▁tasked":11808,"D.":11809,"▁urg":11810,"▁commercially":11811,"▁travelling":11812,"▁garnered":11813,"▁Fact":11814,"▁supern":11815,"▁Scots":11816,"▁involves":11817,"▁Control":11818,"unning":11819,"▁Christians":11820,"backs":11821,"▁benefits":11822,"▁tickets":11823,"ni":11824,"▁Icel":11825,"▁smoke":11826,"▁helps":11827,"▁explore":11828,"▁crashed":11829,"▁cliff":11830,"▁substitute":11831,"▁volunteers":11832,"▁ashore":11833,"▁cry":11834,"▁dimin":11835,"▁Fil":11836,"▁assert":11837,"▁guy":11838,"▁housed":11839,"▁CP":11840,"▁styl":11841,"▁strand":11842,"▁pitcher":11843,"▁options":11844,"▁978":11845,"▁Sherman":11846,"ía":11847,"▁inning":11848,"▁Pul":11849,"▁Winn":11850,"▁flex":11851,"▁escorted":11852,"▁Toy":11853,"▁disorder":11854,"▁Lev":11855,"▁depicts":11856,"▁Movie":11857,"▁concurrent":11858,"▁μm":11859,"▁dying":11860,"rien":11861,"▁spar":11862,"rene":11863,"▁detect":11864,"▁Stein":11865,"▁Midd":11866,"agers":11867,"lights":11868,"▁Pierre":11869,"cut":11870,"uters":11871,"wald":11872,"▁Ages":11873,"▁epic":11874,"▁doors":11875,"▁Management":11876,"▁circular":11877,"▁batted":11878,"▁conflicts":11879,"▁Judge":11880,"▁Baltic":11881,"▁concerning":11882,"▁proteins":11883,"hill":11884,"én":11885,"▁Flore":11886,"▁elaborate":11887,"▁innoc":11888,"▁dinner":11889,"▁vig":11890,"▁Ref":11891,"▁harbour":11892,"▁Iceland":11893,"▁reass":11894,"▁Cer":11895,"▁Krist":11896,"▁verte":11897,"▁pursued":11898,"▁pursuit":11899,"tains":11900,"ovak":11901,"▁Beh":11902,"▁collections":11903,"▁imprisoned":11904,"▁Tourn":11905,"▁Ce":11906,"▁Branch":11907,"ellar":11908,"gged":11909,"▁borrow":11910,"▁tel":11911,"▁Pas":11912,"▁Fern":11913,"▁Thames":11914,"▁Aren":11915,"▁nut":11916,"ardo":11917,"▁Spider":11918,"anne":11919,"▁gods":11920,"▁fron":11921,"▁teammate":11922,"▁authorized":11923,"▁Barbara":11924,"▁fra":11925,"▁inhib":11926,"olar":11927,"▁Fish":11928,"▁145":11929,"▁opposing":11930,"▁favourite":11931,"▁virtually":11932,"sa":11933,"uction":11934,"▁Bask":11935,"▁Fight":11936,"▁Flow":11937,"▁revival":11938,"▁Against":11939,"▁Neb":11940,"▁tempo":11941,"▁competitions":11942,"▁Romney":11943,"lane":11944,"▁cam":11945,"▁pill":11946,"▁editions":11947,"▁Regional":11948,"▁portrait":11949,"▁eventual":11950,"▁1865":11951,"▁manufacturing":11952,"▁Heavyweight":11953,"▁Athens":11954,"▁drain":11955,"▁mixture":11956,"▁ramp":11957,"▁chemistry":11958,"▁Representatives":11959,"kh":11960,"▁census":11961,"ourag":11962,"▁Hearts":11963,"▁politicians":11964,"▁velocity":11965,"ao":11966,"▁conj":11967,"▁renewed":11968,"▁Chad":11969,"▁Zone":11970,"▁handling":11971,"▁Crow":11972,"▁liver":11973,"▁Hunt":11974,"▁screenplay":11975,"▁stones":11976,"▁Comedy":11977,"▁Reagan":11978,"▁Evil":11979,"▁veteran":11980,"▁rushing":11981,"▁urged":11982,"▁Code":11983,"▁Mang":11984,"▁chase":11985,"▁abroad":11986,"▁159":11987,"▁117":11988,"▁suspected":11989,"▁beliefs":11990,"▁leaf":11991,"▁unve":11992,"▁examination":11993,"▁universities":11994,"▁laps":11995,"▁Nancy":11996,"▁NATO":11997,"▁spur":11998,"▁cable":11999,"▁Any":12000,"▁Invest":12001,"▁cattle":12002,"eling":12003,"▁capturing":12004,"▁participants":12005,"inery":12006,"ublin":12007,"▁promise":12008,"▁possess":12009,"▁congress":12010,"▁remembered":12011,"▁Face":12012,"▁interven":12013,"ridor":12014,"▁promoting":12015,"▁stolen":12016,"▁Report":12017,"▁medals":12018,"▁rendered":12019,"anim":12020,"ando":12021,"arest":12022,"▁Tribune":12023,"isition":12024,"▁Nova":12025,"zo":12026,"onation":12027,"roe":12028,"▁V.":12029,"▁colours":12030,"▁trapped":12031,"gow":12032,"▁Tru":12033,"rible":12034,"▁thereby":12035,"▁tracked":12036,"▁bombardment":12037,"▁inherited":12038,"mo":12039,"▁trailer":12040,"▁decreased":12041,"point":12042,"▁cow":12043,"▁vital":12044,"▁apply":12045,"▁organisms":12046,"▁Ernest":12047,"▁Gran":12048,"▁taste":12049,"▁sor":12050,"▁loud":12051,"otion":12052,"▁sharks":12053,"▁prox":12054,"occ":12055,"▁114":12056,"▁118":12057,"▁accidentally":12058,"▁Portugal":12059,"itic":12060,"▁Saf":12061,"▁Draft":12062,"▁comics":12063,"▁Marines":12064,"▁positively":12065,"▁costume":12066,"▁Constantinople":12067,"ocal":12068,"▁prototype":12069,"▁tissue":12070,"▁decay":12071,"▁Newcastle":12072,"▁invaded":12073,"erts":12074,"▁450":12075,"▁celebration":12076,"▁inhab":12077,"▁occasional":12078,"▁juven":12079,"▁Bright":12080,"oba":12081,"▁warned":12082,"▁compositions":12083,"▁sav":12084,"▁Has":12085,"ilda":12086,"▁Personnel":12087,"▁Pete":12088,"▁Charlotte":12089,"▁rand":12090,"▁hopes":12091,"▁blend":12092,"isan":12093,"▁Beth":12094,"▁rains":12095,"limin":12096,"mont":12097,"▁Wed":12098,"▁Eddie":12099,"▁batteries":12100,"▁José":12101,"▁Mi":12102,"▁Kon":12103,"▁Glas":12104,"▁Magic":12105,"▁links":12106,"▁Joint":12107,"rior":12108,"restrial":12109,"▁hoping":12110,"▁evacuation":12111,"▁variations":12112,"▁Affairs":12113,"▁maps":12114,"▁Cinem":12115,"colm":12116,"▁anticipated":12117,"hou":12118,"quer":12119,"▁Gibral":12120,"idia":12121,"▁Youth":12122,"▁Shah":12123,"▁tornado":12124,"fly":12125,"▁ib":12126,"▁dust":12127,"▁Hom":12128,"▁upcoming":12129,"▁1864":12130,"▁Cryst":12131,"▁Laboratory":12132,"▁horizont":12133,"▁laugh":12134,"▁nose":12135,"▁Cornwall":12136,"▁Environment":12137,"icking":12138,"▁marking":12139,"▁Others":12140,"▁Merced":12141,"▁Liberty":12142,"▁bomber":12143,"ampton":12144,"▁Chapel":12145,"bing":12146,"vo":12147,"▁Saw":12148,"▁Voice":12149,"▁guests":12150,"▁genu":12151,"▁boyfriend":12152,"▁sinking":12153,"▁rever":12154,"▁dozen":12155,"▁ERA":12156,"ovic":12157,"▁scandal":12158,"▁impressive":12159,"▁separation":12160,"▁accessible":12161,"▁Freedom":12162,"▁fires":12163,"rogen":12164,"▁AL":12165,"▁indigenous":12166,"▁Agu":12167,"▁easier":12168,"▁laboratory":12169,"igious":12170,"▁provisions":12171,"▁Filming":12172,"ulum":12173,"assy":12174,"▁nickname":12175,"▁Lower":12176,"▁Vick":12177,"ER":12178,"▁Term":12179,"▁rugby":12180,"▁Sic":12181,"▁Vo":12182,"ught":12183,"eps":12184,"▁afford":12185,"▁threats":12186,"▁dependent":12187,"▁Gibraltar":12188,"auc":12189,"▁Tree":12190,"▁Gon":12191,"icken":12192,"▁Malcolm":12193,"▁avoided":12194,"orf":12195,"agles":12196,"▁biological":12197,"▁Meteorological":12198,"held":12199,"▁supports":12200,"▁politician":12201,"▁Friends":12202,"DI":12203,"▁Bapt":12204,"▁handle":12205,"▁volcanic":12206,"▁fed":12207,"▁lighter":12208,"▁Members":12209,"▁progressed":12210,"▁Kenneth":12211,"▁parliamentary":12212,"▁random":12213,"▁trunk":12214,"▁consumption":12215,"▁Armenian":12216,"▁therm":12217,"▁Chester":12218,"▁Cena":12219,"artime":12220,"orted":12221,"▁defenders":12222,"enberg":12223,"▁DJ":12224,"▁nep":12225,"ailing":12226,"▁Leices":12227,"atsu":12228,"▁Case":12229,"▁formula":12230,"▁XX":12231,"▁biography":12232,"▁Protestant":12233,"▁fier":12234,"▁deputy":12235,"▁hyper":12236,"▁restrictions":12237,"amics":12238,"▁imposed":12239,"▁eld":12240,"▁truly":12241,"▁Boulevard":12242,"▁corporate":12243,"▁fles":12244,"▁Cand":12245,"▁'B":12246,"▁Duch":12247,"ptic":12248,"▁Mult":12249,"var":12250,"▁cash":12251,"▁da":12252,"▁usage":12253,"▁Oscar":12254,"▁Cinc":12255,"▁Bark":12256,"agg":12257,"▁Than":12258,"▁murdered":12259,"▁Orchestra":12260,"▁Đ":12261,"lem":12262,"amine":12263,"▁Energy":12264,"▁license":12265,"▁LP":12266,"iah":12267,"▁produces":12268,"▁mixing":12269,"▁occurring":12270,"▁Antar":12271,"E.":12272,"gé":12273,"▁toxic":12274,"▁Skin":12275,"▁Thr":12276,"racks":12277,"changed":12278,"▁Pedro":12279,"▁Isaac":12280,"▁ine":12281,"▁Bears":12282,"▁Peng":12283,"▁noticed":12284,"▁eastward":12285,"▁customers":12286,"▁Chamberlain":12287,"▁wound":12288,"▁MV":12289,"▁acre":12290,"▁131":12291,"▁particles":12292,"▁dreadn":12293,"▁Athletic":12294,"▁lawsuit":12295,"▁Take":12296,"▁Break":12297,"▁Dublin":12298,"▁contracts":12299,"ielder":12300,"etta":12301,"oples":12302,"▁1862":12303,"ded":12304,"alling":12305,"▁exile":12306,"▁plates":12307,"▁timber":12308,"▁por":12309,"▁Action":12310,"▁abb":12311,"osy":12312,"▁metric":12313,"▁killer":12314,"▁Guild":12315,"acht":12316,"▁speculation":12317,"▁cathedral":12318,"▁Career":12319,"▁Chair":12320,"▁Bradley":12321,"▁touchdowns":12322,"heimer":12323,"▁nephew":12324,"▁Zero":12325,"▁engineers":12326,"ju":12327,"▁Sex":12328,"▁relation":12329,"▁ordinary":12330,"▁wake":12331,"▁choir":12332,"▁angry":12333,"▁prest":12334,"▁Cyclone":12335,"▁Altern":12336,"▁107":12337,"▁debris":12338,"▁Room":12339,"▁depicting":12340,"▁disappointed":12341,"▁aside":12342,"▁industries":12343,"▁intellectual":12344,"▁hence":12345,"▁undertaken":12346,"▁Tournament":12347,"▁fab":12348,"▁developments":12349,"▁convicted":12350,"▁Continental":12351,"▁kilog":12352,"▁encounters":12353,"▁Watch":12354,"emble":12355,"▁threatening":12356,"▁Gabri":12357,"bach":12358,"overed":12359,"phal":12360,"▁Slav":12361,"▁ignored":12362,"▁conquest":12363,"▁complicated":12364,"▁thunderstorm":12365,"▁cu":12366,"▁strikes":12367,"▁vicinity":12368,"▁stern":12369,"▁mounts":12370,"▁lyrical":12371,"▁Archbishop":12372,"▁mechanism":12373,"▁Pel":12374,"▁Glee":12375,"osion":12376,"▁decrease":12377,"hl":12378,"itime":12379,"▁une":12380,"▁Metro":12381,"▁throwing":12382,"▁revolutionary":12383,"for":12384,"alg":12385,"▁territorial":12386,"umbered":12387,"AN":12388,"▁mit":12389,"izz":12390,"▁championships":12391,"enburg":12392,"▁Villa":12393,"▁confident":12394,"▁elite":12395,"▁humanity":12396,"▁Springfield":12397,"▁157":12398,"▁Collection":12399,"▁breast":12400,"▁Luft":12401,"▁Serbia":12402,"▁ward":12403,"▁LS":12404,"▁chrom":12405,"▁remin":12406,"▁Ord":12407,"▁exhibit":12408,"▁Alberta":12409,"▁Kin":12410,"▁220":12411,"▁conversation":12412,"AP":12413,"▁Future":12414,"▁realistic":12415,"▁lacking":12416,"▁Tommy":12417,"▁Cincinn":12418,"itol":12419,"▁contacted":12420,"▁preserve":12421,"▁132":12422,"onial":12423,"entieth":12424,"aco":12425,"▁Mann":12426,"ieg":12427,"▁metre":12428,"▁constantly":12429,"▁helicopter":12430,"▁arose":12431,"icing":12432,"▁mos":12433,"olia":12434,"▁suspension":12435,"▁focuses":12436,"▁Marshal":12437,"▁boost":12438,"▁mammals":12439,"▁inaugural":12440,"iture":12441,"▁penn":12442,"▁Pros":12443,"▁Place":12444,"▁Micha":12445,"▁facil":12446,"▁Studies":12447,"▁posts":12448,"▁Gates":12449,"▁Joan":12450,"▁entert":12451,"▁Churchill":12452,"▁Taiwan":12453,"▁gif":12454,"▁Veg":12455,"▁Shep":12456,"▁farmers":12457,"▁predominantly":12458,"iked":12459,"uka":12460,"▁voters":12461,"bel":12462,"encer":12463,"▁Tir":12464,"etary":12465,"▁stim":12466,"▁patri":12467,"liminary":12468,"▁asserted":12469,"▁Muslims":12470,"▁infer":12471,"omed":12472,"▁desper":12473,"▁diamond":12474,"▁tools":12475,"ellers":12476,"rolled":12477,"oirs":12478,"▁Friedrich":12479,"▁infection":12480,"▁Malta":12481,"Hg":12482,"asp":12483,"▁unt":12484,"▁Yugoslavia":12485,"▁Tint":12486,"▁Pay":12487,"▁Jake":12488,"ocol":12489,"▁Kaz":12490,"▁releasing":12491,"▁photo":12492,"▁collaborated":12493,"▁thorough":12494,"▁Rear":12495,"▁Ancient":12496,"▁thro":12497,"▁Canu":12498,"rank":12499,"▁feathers":12500,"▁absorbed":12501,"▁Wagner":12502,"▁Chet":12503,"▁patient":12504,"▁removing":12505,"▁conspiracy":12506,"▁mad":12507,"▁holes":12508,"▁Hood":12509,"▁Hull":12510,"▁Uk":12511,"▁centered":12512,"▁Reed":12513,"▁peninsula":12514,"▁tune":12515,"▁Maine":12516,"▁Round":12517,"ortion":12518,"▁Shiva":12519,"▁Waters":12520,"quiry":12521,"iga":12522,"▁relieved":12523,"▁EC":12524,"▁apolog":12525,"ework":12526,"▁castles":12527,"ischer":12528,"▁compiled":12529,"▁grows":12530,"▁Robin":12531,"▁illustrated":12532,"▁user":12533,"▁explanation":12534,"▁Fly":12535,"ubble":12536,"▁Parks":12537,"▁knows":12538,"▁canceled":12539,"▁Cincinnati":12540,"▁pig":12541,"▁Comics":12542,"▁roadway":12543,"▁Normandy":12544,"▁isn":12545,"▁126":12546,"▁speeds":12547,"▁independently":12548,"▁Burke":12549,"▁Olivia":12550,"▁sustain":12551,"▁Dud":12552,"▁resid":12553,"▁enorm":12554,"▁retrie":12555,"ennial":12556,"▁Hispan":12557,"▁situations":12558,"▁Angelou":12559,"▁Esc":12560,"▁Shield":12561,"regular":12562,"▁Afghanistan":12563,"▁Maced":12564,"auge":12565,"▁armoured":12566,"▁pleased":12567,"▁VIII":12568,"▁antib":12569,"▁fant":12570,"▁Chang":12571,"▁sheep":12572,"ringe":12573,"▁bowl":12574,"▁breeds":12575,"▁Cort":12576,"▁encom":12577,"ahl":12578,"▁Alliance":12579,"▁marched":12580,"▁Vegas":12581,"asury":12582,"▁Kill":12583,"ritic":12584,"▁119":12585,"▁1887":12586,"music":12587,"▁Sor":12588,"▁Lords":12589,"▁offshore":12590,"rels":12591,"▁lover":12592,"▁Brid":12593,"▁Madison":12594,"oi":12595,"▁aest":12596,"▁lib":12597,"▁Edmund":12598,"▁outstanding":12599,"▁Twitter":12600,"▁paying":12601,"▁clergy":12602,"▁layers":12603,"▁Poké":12604,"▁Eld":12605,"▁arena":12606,"▁prosper":12607,"▁blast":12608,"▁couldn":12609,"▁1880":12610,"uber":12611,"▁Rush":12612,"▁1863":12613,"▁varying":12614,"▁mild":12615,"▁closure":12616,"▁Conservative":12617,"hall":12618,"oom":12619,"▁expanding":12620,"▁viewing":12621,"▁disappeared":12622,"▁Revolutionary":12623,"▁locomotives":12624,"icular":12625,"ulates":12626,"▁butter":12627,"▁backst":12628,"▁sentiment":12629,"▁1886":12630,"▁Gregory":12631,"▁mask":12632,"▁Sad":12633,"▁Kra":12634,"▁genres":12635,"▁Former":12636,"bu":12637,"▁Lud":12638,"▁perc":12639,"overty":12640,"▁Technology":12641,"▁colored":12642,"▁dropping":12643,"gus":12644,"▁Leeds":12645,"found":12646,"▁JNA":12647,"▁reporting":12648,"hart":12649,"avan":12650,"▁suggestion":12651,"imony":12652,"ribution":12653,"▁celebrate":12654,"umberland":12655,"instein":12656,"▁Coal":12657,"▁Serge":12658,"▁Mercury":12659,"▁Schumacher":12660,"WA":12661,"▁Hus":12662,"▁atop":12663,"▁spir":12664,"izard":12665,"aneous":12666,"▁nevertheless":12667,"▁Brooklyn":12668,"▁bapt":12669,"▁Hubb":12670,"▁flour":12671,"▁regulations":12672,"▁fungus":12673,"▁Orton":12674,"▁submarines":12675,"▁MLB":12676,"▁inducted":12677,"gary":12678,"▁Cou":12679,"▁Cut":12680,"▁Cond":12681,"acular":12682,"▁grid":12683,"▁Dennis":12684,"▁24th":12685,"onnie":12686,"▁Julian":12687,"▁aqu":12688,"▁Nation":12689,"ipher":12690,"▁oxid":12691,"▁asc":12692,"issioned":12693,"▁witnesses":12694,"▁Cry":12695,"▁attraction":12696,"feld":12697,"▁ˈ":12698,"inated":12699,"▁Talk":12700,"▁Soph":12701,"▁Burg":12702,"▁Rus":12703,"▁conced":12704,"▁rab":12705,"▁anthem":12706,"▁É":12707,"▁Chem":12708,"▁submer":12709,"▁faculty":12710,"▁Helen":12711,"▁swept":12712,"AL":12713,"▁eagle":12714,"ishn":12715,"▁reporter":12716,"▁companion":12717,"▁Princeton":12718,"▁Tigers":12719,"▁af":12720,"leted":12721,"▁Aub":12722,"▁remote":12723,"▁inHg":12724,"▁retreated":12725,"▁monit":12726,"▁positioned":12727,"▁Browns":12728,"▁romance":12729,"▁McKinley":12730,"zes":12731,"omon":12732,"▁Mut":12733,"▁Lamb":12734,"▁repris":12735,"▁Organization":12736,"▁pseud":12737,"▁Vern":12738,"▁103":12739,"▁organic":12740,"▁tent":12741,"▁sulf":12742,"▁Nathan":12743,"▁blamed":12744,"▁publicity":12745,"▁fortifications":12746,"gett":12747,"▁verses":12748,"▁Month":12749,"▁parking":12750,"▁Historical":12751,"▁stored":12752,"yan":12753,"odium":12754,"▁Leo":12755,"▁fundamental":12756,"flow":12757,"▁shelter":12758,"▁stability":12759,"▁whatever":12760,"▁Musical":12761,"▁1884":12762,"▁targeted":12763,"▁Ghost":12764,"▁condemned":12765,"▁Hubbard":12766,"bie":12767,"▁Stal":12768,"▁mail":12769,"▁122":12770,"▁annex":12771,"▁curve":12772,"▁Smack":12773,"eness":12774,"▁Barcel":12775,"▁focusing":12776,"▁corresponding":12777,"▁fossils":12778,"▁ferry":12779,"pin":12780,"▁lung":12781,"usters":12782,"▁recruit":12783,"hend":12784,"▁fract":12785,"▁gentle":12786,"▁progressive":12787,"▁Steam":12788,"yd":12789,"▁noise":12790,"▁flown":12791,"▁A.V.":12792,"▁NASA":12793,"rity":12794,"qual":12795,"▁torpedoes":12796,"▁irregular":12797,"▁preceding":12798,"▁Political":12799,"▁Father":12800,"▁detected":12801,"lett":12802,"▁swing":12803,"▁roster":12804,"▁confused":12805,"▁drunk":12806,"▁disbanded":12807,"▁Glasgow":12808,"eda":12809,"▁Isle":12810,"▁Opera":12811,"▁mentions":12812,"▁Canucks":12813,"▁fault":12814,"▁Isab":12815,"▁convince":12816,"▁melod":12817,"▁Mak":12818,"▁Pick":12819,"▁Nass":12820,"▁cha":12821,"▁encourag":12822,"▁resignation":12823,"cell":12824,"▁Tests":12825,"▁Inside":12826,"iki":12827,"▁Devil":12828,"▁telephone":12829,"areness":12830,"▁cruise":12831,"▁challenging":12832,"▁Nad":12833,"▁regiments":12834,"▁machines":12835,"▁magnetic":12836,"▁bore":12837,"▁directing":12838,"▁rebounds":12839,"▁Holland":12840,"▁brings":12841,"arded":12842,"▁quoted":12843,"▁insurance":12844,"▁winners":12845,"auded":12846,"▁calculated":12847,"▁solely":12848,"▁terminal":12849,"▁Solar":12850,"▁rice":12851,"▁Strong":12852,"▁scrap":12853,"▁studios":12854,"▁Austro":12855,"▁tourist":12856,"▁Phillies":12857,"▁Fifth":12858,"▁Theodore":12859,"igation":12860,"▁RI":12861,"▁Insp":12862,"▁Montana":12863,"▁diversity":12864,"▁triumph":12865,"▁Millennium":12866,"▁Herbert":12867,"▁worse":12868,"▁UB":12869,"▁thanks":12870,"▁Celtic":12871,"▁tap":12872,"elin":12873,"ewise":12874,"▁Seb":12875,"▁Westminster":12876,"▁judicial":12877,"▁creature":12878,"▁concepts":12879,"▁Denver":12880,"▁Nam":12881,"▁Kil":12882,"▁favored":12883,"▁darker":12884,"onso":12885,"▁hide":12886,"▁Morning":12887,"▁routing":12888,"▁BCE":12889,"▁Tintin":12890,"vor":12891,"isk":12892,"avian":12893,"roscop":12894,"▁scholarship":12895,"▁CEO":12896,"▁nice":12897,"ishops":12898,"▁rotation":12899,"ampa":12900,"▁1877":12901,"▁Basketball":12902,"▁129":12903,"▁historically":12904,"inter":12905,"▁myself":12906,"ourable":12907,"▁Adventure":12908,"▁fo":12909,"▁Mig":12910,"▁Wel":12911,"▁138":12912,"▁rounded":12913,"▁prompting":12914,"▁Epis":12915,"▁cemetery":12916,"▁gear":12917,"atty":12918,"▁1876":12919,"▁cotton":12920,"▁Bour":12921,"▁agencies":12922,"overy":12923,"hentic":12924,"▁230":12925,"▁zero":12926,"▁examined":12927,"▁steadily":12928,"▁ghost":12929,"▁jersey":12930,"▁config":12931,"▁Expl":12932,"▁commitment":12933,"▁reconstruction":12934,"▁Mercedes":12935,"▁Rav":12936,"▁jew":12937,"▁Barn":12938,"▁Brah":12939,"ulu":12940,"▁Yard":12941,"▁116":12942,"▁troop":12943,"▁battlefield":12944,"nda":12945,"▁Poe":12946,"▁Occ":12947,"lude":12948,"▁acclaimed":12949,"iors":12950,"▁masc":12951,"▁Theater":12952,"▁trio":12953,"▁Glou":12954,"▁motif":12955,"▁Bulgarian":12956,"▁spacecraft":12957,"▁Nevada":12958,"▁wartime":12959,"umi":12960,"▁sharing":12961,"▁Athen":12962,"works":12963,"▁Cox":12964,"▁Rivers":12965,"▁messages":12966,"▁Albany":12967,"▁gusts":12968,"▁Additional":12969,"rians":12970,"▁134":12971,"▁agrees":12972,"▁measuring":12973,"▁Salv":12974,"▁Ronald":12975,"sis":12976,"▁Cany":12977,"acer":12978,"▁incidents":12979,"▁guards":12980,"▁postp":12981,"▁Percy":12982,"▁connects":12983,"▁balls":12984,"▁walked":12985,"▁Gothic":12986,"▁monastery":12987,"atisf":12988,"▁Sri":12989,"▁Squad":12990,"▁decisive":12991,"▁presents":12992,"▁poster":12993,"▁conducting":12994,"▁elevated":12995,"▁amphib":12996,"▁Led":12997,"▁refuses":12998,"▁radius":12999,"▁walks":13000,"▁Carlos":13001,"▁Current":13002,"lined":13003,"ör":13004,"▁distinction":13005,"▁Caes":13006,"▁eligible":13007,"▁screens":13008,"omical":13009,"▁Bris":13010,"▁Hok":13011,"▁themed":13012,"▁curved":13013,"▁flower":13014,"eta":13015,"▁kilometers":13016,"▁Ottawa":13017,"▁clouds":13018,"▁Territory":13019,"▁linear":13020,"▁proclaimed":13021,"▁oct":13022,"▁loose":13023,"▁Rosen":13024,"istical":13025,"▁trig":13026,"▁consequence":13027,"▁revenge":13028,"Music":13029,"bi":13030,"aton":13031,"▁hosp":13032,"▁convey":13033,"▁exterior":13034,"aults":13035,"▁accomplished":13036,"▁tough":13037,"▁stall":13038,"opard":13039,"▁kids":13040,"▁Verm":13041,"arians":13042,"▁echo":13043,"▁Pack":13044,"ettes":13045,"▁integrated":13046,"ht":13047,"aku":13048,"▁finest":13049,"▁arguments":13050,"▁physically":13051,"▁opined":13052,"▁ritual":13053,"cont":13054,"▁p.m.":13055,"▁Chuck":13056,"▁rebel":13057,"▁Berm":13058,"olan":13059,"▁comed":13060,"izers":13061,"▁centimet":13062,"▁creatures":13063,"▁participating":13064,"▁cosm":13065,"▁lakes":13066,"unge":13067,"aba":13068,"▁Mega":13069,"atar":13070,"▁Marl":13071,"▁Abra":13072,"▁theaters":13073,"▁venues":13074,"arthy":13075,"▁Pokémon":13076,"▁Barcelona":13077,"▁Duc":13078,"iffer":13079,"▁scout":13080,"▁airborne":13081,"▁runner":13082,"▁1875":13083,"▁encompass":13084,"▁intend":13085,"▁Fun":13086,"▁spell":13087,"▁Cardinals":13088,"▁martial":13089,"▁Michaels":13090,"▁Tas":13091,"abad":13092,"assic":13093,"▁Arc":13094,"▁indirect":13095,"▁Milan":13096,"itars":13097,"ighed":13098,"▁unh":13099,"▁instructions":13100,"Down":13101,"▁Chan":13102,"ogs":13103,"▁canon":13104,"▁insuff":13105,"▁deliberately":13106,"▁touc":13107,"▁spots":13108,"reeks":13109,"▁demographic":13110,"▁Metac":13111,"▁ceremonies":13112,"▁Hi":13113,"▁chann":13114,"▁128":13115,"▁Parkway":13116,"▁width":13117,"▁enhanced":13118,"▁mansion":13119,"▁intermediate":13120,"▁reminisc":13121,"season":13122,"▁yd":13123,"ubs":13124,"▁properly":13125,"▁contribute":13126,"▁complimented":13127,"sch":13128,"▁Wis":13129,"▁Enix":13130,"▁Colin":13131,"▁lesser":13132,"▁SmackDown":13133,"▁contrad":13134,"▁prince":13135,"▁Paraly":13136,"▁Operations":13137,"▁telesc":13138,"▁gram":13139,"▁peoples":13140,"▁marg":13141,"▁possessed":13142,"▁Raymond":13143,"▁preparations":13144,"▁extends":13145,"▁weakness":13146,"anka":13147,"▁varies":13148,"▁transformed":13149,"▁heavier":13150,"▁borough":13151,"▁Henderson":13152,"▁Drake":13153,"▁Foster":13154,"▁Hein":13155,"▁ministers":13156,"▁Archae":13157,"▁Circle":13158,"▁harsh":13159,"▁onwards":13160,"▁southwestern":13161,"▁bowled":13162,"▁prospect":13163,"inus":13164,"▁RBI":13165,"▁Emma":13166,"▁1883":13167,"rium":13168,"▁remake":13169,"▁Speed":13170,"▁Romanian":13171,"GM":13172,"asia":13173,"▁Bod":13174,"▁sensitive":13175,"▁assassination":13176,"▁Manuel":13177,"▁Middles":13178,"herent":13179,"▁Wings":13180,"▁outcome":13181,"▁coaches":13182,"▁1881":13183,"rush":13184,"▁playable":13185,"▁achievements":13186,"▁initiative":13187,"▁Sciences":13188,"▁Computer":13189,"▁optim":13190,"▁vegetation":13191,"▁aided":13192,"▁continental":13193,"▁critically":13194,"▁Weather":13195,"▁updated":13196,"HC":13197,"▁hurt":13198,"▁homosexual":13199,"▁fru":13200,"▁disabled":13201,"▁Shin":13202,"▁transmission":13203,"▁Angle":13204,"▁Belie":13205,"▁Total":13206,"▁rook":13207,"▁allied":13208,"ashire":13209,"lake":13210,"▁wit":13211,"arus":13212,"▁bin":13213,"▁RNA":13214,"▁logo":13215,"▁Diamond":13216,"yc":13217,"▁Voy":13218,"atorial":13219,"ironments":13220,"▁propaganda":13221,"▁Paralymp":13222,"agi":13223,"▁Alam":13224,"▁Blair":13225,"▁consideration":13226,"▁Venice":13227,"▁moist":13228,"chw":13229,"▁Northwest":13230,"▁rider":13231,"▁variable":13232,"▁deposits":13233,"▁Jamaica":13234,"▁depiction":13235,"▁tourists":13236,"▁Ferdin":13237,"▁consciousness":13238,"core":13239,"▁Bass":13240,"▁Fa":13241,"▁landmark":13242,"appa":13243,"▁1869":13244,"▁estimate":13245,"▁emerging":13246,"▁sailors":13247,"▁exercises":13248,"▁reh":13249,"▁monster":13250,"▁151":13251,"▁Richardson":13252,"▁Body":13253,"▁unanim":13254,"actic":13255,"▁Unit":13256,"▁worker":13257,"▁damaging":13258,"▁Composition":13259,"▁Contem":13260,"▁Powell":13261,"▁subtropical":13262,"▁autobiography":13263,"▁tom":13264,"▁Delta":13265,"cht":13266,"▁Calgary":13267,"alties":13268,"▁Aqu":13269,"▁Duncan":13270,"▁orchestral":13271,"▁Lancashire":13272,"▁municipal":13273,"▁archaeological":13274,"▁Arena":13275,"▁Ib":13276,"rip":13277,"▁seal":13278,"▁spite":13279,"▁northeastern":13280,"▁honors":13281,"▁consistently":13282,"▁punishment":13283,"▁permanently":13284,"▁Isles":13285,"▁environments":13286,"▁comprising":13287,"▁latest":13288,"▁ascend":13289,"▁staged":13290,"▁pref":13291,"▁routine":13292,"▁borders":13293,"▁stom":13294,"▁1866":13295,"▁doctrine":13296,"▁epit":13297,"▁Springs":13298,"▁revealing":13299,"▁Veronica":13300,"▁Cu":13301,"▁Range":13302,"▁summon":13303,"▁dock":13304,"riages":13305,"▁presidency":13306,"▁carved":13307,"▁Floyd":13308,"▁coaching":13309,"▁searching":13310,"▁Planet":13311,"▁Psych":13312,"▁performers":13313,"rington":13314,"▁achievement":13315,"▁journalists":13316,"▁Rif":13317,"▁managing":13318,"▁Mills":13319,"▁Carn":13320,"▁Medic":13321,"▁dispatched":13322,"▁750":13323,"▁belonging":13324,"▁unsuccessfully":13325,"▁ion":13326,"iang":13327,"▁XI":13328,"▁priority":13329,"▁payment":13330,"ijing":13331,"▁Rodrig":13332,"▁Using":13333,"▁witnessed":13334,"▁delegates":13335,"▁mysterious":13336,"▁input":13337,"▁marsh":13338,"▁Frances":13339,"▁Ellen":13340,"▁Canyon":13341,"lex":13342,"ido":13343,"▁Pon":13344,"▁confer":13345,"▁Cloud":13346,"▁Headquarters":13347,"▁psychiat":13348,"▁enlar":13349,"▁complement":13350,"▁versus":13351,"▁Berg":13352,"▁preventing":13353,"▁reluctant":13354,"the":13355,"▁silent":13356,"▁Conserv":13357,"▁encourage":13358,"▁odd":13359,"▁frigate":13360,"▁Tab":13361,"▁Pra":13362,"▁Crawford":13363,"gor":13364,"▁202":13365,"▁milk":13366,"▁venture":13367,"▁Crystal":13368,"RS":13369,"zig":13370,"▁124":13371,"▁philosopher":13372,"▁Intellig":13373,"▁phenomenon":13374,"▁Tib":13375,"▁gates":13376,"▁Flanders":13377,"▁Telegraph":13378,"▁argue":13379,"▁lengths":13380,"stown":13381,"▁anarch":13382,"▁actively":13383,"▁ceiling":13384,"▁Butler":13385,"▁belonged":13386,"▁distinguish":13387,"▁Palestine":13388,"omys":13389,"olars":13390,"▁strange":13391,"▁plum":13392,"▁Grove":13393,"▁Leicester":13394,"▁Punk":13395,"▁Dj":13396,"arma":13397,"▁disputed":13398,"▁switched":13399,"▁mant":13400,"▁Food":13401,"▁Vic":13402,"assed":13403,"▁executives":13404,"▁hypothesis":13405,"▁poverty":13406,"▁gest":13407,"▁Marqu":13408,"▁Guadal":13409,"▁icon":13410,"oric":13411,"isations":13412,"adows":13413,"▁Mull":13414,"idge":13415,"rained":13416,"▁shaft":13417,"▁eighteen":13418,"▁1873":13419,"▁mechanics":13420,"▁finance":13421,"▁Plat":13422,"▁exploration":13423,"▁corruption":13424,"▁Assist":13425,"▁awareness":13426,"asi":13427,"▁Mile":13428,"▁listening":13429,"boat":13430,"▁1882":13431,"▁scientist":13432,"▁'Brien":13433,"▁Newman":13434,"▁directions":13435,"▁introduce":13436,"▁mystery":13437,"alia":13438,"▁mbar":13439,"▁root":13440,"▁contributing":13441,"▁expectations":13442,"R.":13443,"Tunes":13444,"▁Tucker":13445,"▁abst":13446,"▁accus":13447,"▁SH":13448,"▁Fur":13449,"▁Fischer":13450,"▁vamp":13451,"▁rational":13452,"usty":13453,"▁formations":13454,"▁Beijing":13455,"▁internationally":13456,"▁1871":13457,"▁adjust":13458,"eches":13459,"▁Anat":13460,"▁shipped":13461,"▁Films":13462,"▁Watson":13463,"▁ov":13464,"immer":13465,"▁guitars":13466,"▁Region":13467,"▁1867":13468,"▁objectives":13469,"rud":13470,"▁Bea":13471,"nery":13472,"▁temples":13473,"▁molecular":13474,"▁dimensional":13475,"▁honey":13476,"▁Ply":13477,"▁whales":13478,"▁leagues":13479,"▁Why":13480,"rews":13481,"▁processing":13482,"▁procedure":13483,"▁sib":13484,"▁sheet":13485,"▁metals":13486,"▁surpassed":13487,"▁submerged":13488,"▁Syl":13489,"▁Raid":13490,"▁desired":13491,"▁phosph":13492,"▁improving":13493,"▁Kepler":13494,"▁tribut":13495,"▁naturally":13496,"BO":13497,"asaki":13498,"ulture":13499,"▁advocated":13500,"▁associate":13501,"▁McCarthy":13502,"▁overwhelming":13503,"▁Pine":13504,"▁Ky":13505,"▁True":13506,"▁privile":13507,"▁saving":13508,"▁Lore":13509,"▁Seas":13510,"▁remind":13511,"▁Truman":13512,"▁discussing":13513,"▁reop":13514,"▁staying":13515,"▁convert":13516,"▁unrel":13517,"ierra":13518,"▁eleph":13519,"▁Desert":13520,"▁Standard":13521,"▁dive":13522,"▁Hass":13523,"▁Commons":13524,"▁acceptance":13525,"▁loaded":13526,"▁comprised":13527,"▁abundant":13528,"▁Dudley":13529,"▁Hil":13530,"▁U2":13531,"▁Commerc":13532,"▁Malay":13533,"▁horsepower":13534,"▁requirement":13535,"▁cubic":13536,"CO":13537,"LA":13538,"eded":13539,"orig":13540,"istocr":13541,"erness":13542,"ère":13543,"▁tasks":13544,"▁Nak":13545,"ogg":13546,"▁reson":13547,"▁cameo":13548,"▁1878":13549,"▁Deputy":13550,"▁refugees":13551,"▁haz":13552,"amation":13553,"▁Vlad":13554,"▁perf":13555,"▁partners":13556,"▁estates":13557,"▁Exped":13558,"▁crucial":13559,"waffe":13560,"ouch":13561,"▁Mail":13562,"imer":13563,"▁137":13564,"▁Adela":13565,"▁Masters":13566,"▁rushed":13567,"▁jaw":13568,"▁blockade":13569,"▁nervous":13570,"▁cro":13571,"▁gran":13572,"acking":13573,"angered":13574,"▁explored":13575,"▁keyboard":13576,"▁Surv":13577,"▁fragments":13578,"▁genera":13579,"▁collecting":13580,"▁composers":13581,"▁opinions":13582,"▁Gibson":13583,"▁navigation":13584,"▁adequ":13585,"▁genes":13586,"▁ironcl":13587,"▁Byzant":13588,"▁Culture":13589,"▁pump":13590,"▁memb":13591,"isting":13592,"▁speculated":13593,"▁authentic":13594,"suing":13595,"▁resemble":13596,"utely":13597,"▁unre":13598,"▁channels":13599,"inqu":13600,"▁republic":13601,"▁Colomb":13602,"▁Trinity":13603,"heads":13604,"▁iTunes":13605,"▁undertook":13606,"▁Bran":13607,"▁Sche":13608,"▁Professional":13609,"▁percussion":13610,"▁suffer":13611,"▁turbines":13612,"GB":13613,"elia":13614,"▁stair":13615,"▁Eagle":13616,"▁averaged":13617,"▁compromise":13618,"thlete":13619,"▁seeds":13620,"▁123":13621,"▁photos":13622,"▁immigrants":13623,"▁bars":13624,"▁Alpha":13625,"▁femin":13626,"rehensive":13627,"icus":13628,"utter":13629,"▁Clif":13630,"▁posthum":13631,"▁homeless":13632,"▁habitats":13633,"▁gam":13634,"avil":13635,"▁Kem":13636,"▁assets":13637,"▁repet":13638,"▁summar":13639,"cour":13640,"lia":13641,"unar":13642,"▁underwater":13643,"▁defenses":13644,"▁complaints":13645,"▁manufactured":13646,"▁Mick":13647,"▁Mobile":13648,"▁Meyer":13649,"▁whale":13650,"opol":13651,"▁ensuing":13652,"▁faction":13653,"▁bench":13654,"rection":13655,"enz":13656,"▁Aaron":13657,"▁ants":13658,"▁manages":13659,"ikes":13660,"▁Monster":13661,"▁Method":13662,"RC":13663,"▁sic":13664,"▁Luther":13665,"▁metall":13666,"▁Appro":13667,"▁symbols":13668,"▁psychological":13669,"▁Wellington":13670,"▁reconstruct":13671,"▁lesb":13672,"▁Baptist":13673,"▁Metacritic":13674,"ho":13675,"yll":13676,"▁ups":13677,"oves":13678,"amped":13679,"▁relied":13680,"▁coastline":13681,"▁dissolved":13682,"▁networks":13683,"▁consequences":13684,"otypes":13685,"wyn":13686,"ylum":13687,"▁improv":13688,"▁honorary":13689,"employ":13690,"▁Shan":13691,"▁landings":13692,"▁lengthy":13693,"▁absolute":13694,"▁Wrest":13695,"▁consensus":13696,"▁buff":13697,"▁brut":13698,"▁contempor":13699,"▁cave":13700,"▁gauge":13701,"▁Want":13702,"▁fraud":13703,"▁Luftwaffe":13704,"mother":13705,"▁adds":13706,"▁emig":13707,"▁ultimate":13708,"▁ambassador":13709,"▁qualities":13710,"ographed":13711,"iggins":13712,"▁reserves":13713,"▁pounder":13714,"▁Shelley":13715,"▁eruption":13716,"▁intact":13717,"ugs":13718,"▁1860":13719,"▁symph":13720,"▁goddess":13721,"▁loyalty":13722,"▁Bermuda":13723,"iden":13724,"▁variant":13725,"▁essay":13726,"▁printing":13727,"▁Urban":13728,"▁fears":13729,"▁Genesis":13730,"▁signals":13731,"▁Monroe":13732,"▁Timber":13733,"▁patrols":13734,"di":13735,"▁MC":13736,"usive":13737,"through":13738,"▁singers":13739,"otto":13740,"▁lemurs":13741,"▁ol":13742,"olith":13743,"▁Machine":13744,"▁assessment":13745,"▁unveiled":13746,"fr":13747,"▁CM":13748,"▁Cool":13749,"▁Herm":13750,"▁Shar":13751,"▁disappoint":13752,"▁interf":13753,"▁1868":13754,"▁1872":13755,"▁Woods":13756,"▁lifted":13757,"▁grossed":13758,"▁Wolver":13759,"▁RPG":13760,"▁Aguiler":13761,"▁flesh":13762,"ema":13763,"▁weighed":13764,"aurus":13765,"▁rocket":13766,"▁explosive":13767,"▁doctors":13768,"▁eldest":13769,"▁Marx":13770,"licted":13771,"▁teachers":13772,"▁Otto":13773,"▁Hat":13774,"▁sear":13775,"▁aristocr":13776,"▁25th":13777,"▁Henri":13778,"▁emotions":13779,"▁Various":13780,"▁Selena":13781,"▁Aguilera":13782,"ED":13783,"▁duck":13784,"▁Mom":13785,"▁amid":13786,"▁millions":13787,"▁delight":13788,"▁Notable":13789,"▁battlecruisers":13790,"▁Choice":13791,"▁comparing":13792,"▁spectators":13793,"▁interactions":13794,"▁Engineering":13795,"orge":13796,"▁owing":13797,"▁Pi":13798,"eward":13799,"ovsky":13800,"▁clip":13801,"endar":13802,"▁twentieth":13803,"▁tradem":13804,"auna":13805,"▁literally":13806,"▁enormous":13807,"imity":13808,"igo":13809,"▁Rah":13810,"▁politically":13811,"▁insufficient":13812,"edar":13813,"▁hier":13814,"▁Mk":13815,"▁stabil":13816,"▁chlor":13817,"▁Chin":13818,"▁songwriting":13819,"▁batsman":13820,"stad":13821,"▁Esp":13822,"▁Newport":13823,"▁engaging":13824,"▁Female":13825,"▁horizontal":13826,"▁Flames":13827,"▁costumes":13828,"▁Ellis":13829,"▁Dakota":13830,"iri":13831,"▁Fab":13832,"▁Stage":13833,"ebe":13834,"▁instructed":13835,"▁Money":13836,"▁dealt":13837,"▁relating":13838,"▁appealed":13839,"▁revived":13840,"ci":13841,"▁tensions":13842,"▁Wool":13843,"▁rally":13844,"▁deals":13845,"▁enrolled":13846,"issa":13847,"monton":13848,"▁digit":13849,"▁intelligent":13850,"▁Cabinet":13851,"▁MVP":13852,"▁Pent":13853,"▁Riley":13854,"▁suited":13855,"▁telev":13856,"cock":13857,"uits":13858,"▁trips":13859,"▁reader":13860,"▁vocalist":13861,"▁Chandler":13862,"▁bacteria":13863,"▁Expedition":13864,"iche":13865,"star":13866,"▁Leigh":13867,"▁Renaissance":13868,"▁Gaz":13869,"▁strings":13870,"▁Knights":13871,"▁Adelaide":13872,"▁referee":13873,"dam":13874,"keley":13875,"▁subd":13876,"▁Drum":13877,"▁bitter":13878,"▁instrumentation":13879,"orus":13880,"▁frog":13881,"▁stroke":13882,"▁Lie":13883,"▁subordin":13884,"▁Soviets":13885,"▁WWF":13886,"▁allegations":13887,"▁incomple":13888,"force":13889,"▁liv":13890,"▁Hanc":13891,"odon":13892,"bery":13893,"▁Nept":13894,"▁slower":13895,"▁intersections":13896,"▁graphic":13897,"▁Phillips":13898,"▁Ferdinand":13899,"▁anx":13900,"▁declaration":13901,"▁diseases":13902,"▁Geoffrey":13903,"hand":13904,"▁Come":13905,"ichi":13906,"▁exhibited":13907,"▁Maxwell":13908,"▁extraordin":13909,"▁reminiscent":13910,"nal":13911,"▁cats":13912,"▁hurricanes":13913,"▁Sans":13914,"▁NL":13915,"▁Screen":13916,"▁Surrey":13917,"▁mushroom":13918,"▁Mol":13919,"rav":13920,"▁clan":13921,"▁Heaven":13922,"▁woods":13923,"ologically":13924,"▁termed":13925,"▁Therefore":13926,"▁widow":13927,"▁chapters":13928,"▁View":13929,"▁Curtis":13930,"▁missile":13931,"▁wishes":13932,"▁hung":13933,"otilla":13934,"▁Combat":13935,"▁incred":13936,"▁overcome":13937,"▁Lead":13938,"▁involve":13939,"▁etc":13940,"▁gallery":13941,"▁Marcus":13942,"pect":13943,"▁Wald":13944,"▁Barrett":13945,"▁counsel":13946,"▁discipline":13947,"utonium":13948,"▁Capital":13949,"▁Metal":13950,"▁1850":13951,"▁thickness":13952,"▁mistake":13953,"▁tactical":13954,"▁Essex":13955,"▁sacrifice":13956,"▁Abraham":13957,"▁Fellow":13958,"▁Spencer":13959,"▁Movement":13960,"▁disliked":13961,"▁Plymouth":13962,"▁Prison":13963,"▁modest":13964,"▁Romans":13965,"▁quantities":13966,"▁Heath":13967,"▁interference":13968,"▁Madrid":13969,"▁mathematics":13970,"zi":13971,"▁misc":13972,"▁Right":13973,"▁transit":13974,"ungle":13975,"▁athletic":13976,"▁shirt":13977,"▁Franco":13978,"▁cultures":13979,"▁GameSpot":13980,"odied":13981,"▁repaired":13982,"▁Blake":13983,"▁joins":13984,"▁rulers":13985,"▁Burger":13986,"▁shopping":13987,"▁hunt":13988,"▁SA":13989,"othe":13990,"▁shar":13991,"▁expense":13992,"▁machinery":13993,"▁nomine":13994,"▁resur":13995,"▁Poll":13996,"▁rifle":13997,"▁panels":13998,"▁supporter":13999,"▁proceeds":14000,"▁finger":14001,"lend":14002,"▁Tall":14003,"▁Hond":14004,"enne":14005,"▁circles":14006,"▁Resident":14007,"▁Vienna":14008,"▁nicknamed":14009,"▁syndrome":14010,"▁Equ":14011,"▁assign":14012,"wind":14013,"▁bol":14014,"stand":14015,"urers":14016,"ulk":14017,"▁Spit":14018,"▁continent":14019,"▁fights":14020,"▁caliber":14021,"▁Contemporary":14022,"▁hect":14023,"▁Adrian":14024,"▁Contin":14025,"▁Brigadier":14026,"▁imported":14027,"kinson":14028,"▁Daniels":14029,"▁Bosnia":14030,"▁Hancock":14031,"itects":14032,"▁A3":14033,"▁Aviation":14034,"▁Bri":14035,"opsis":14036,"▁commentators":14037,"▁migration":14038,"▁Florence":14039,"alid":14040,"▁washed":14041,"▁spores":14042,"▁Norse":14043,"▁fatal":14044,"▁Relations":14045,"▁fare":14046,"▁Sponge":14047,"▁Flood":14048,"▁interviewed":14049,"▁Admiralty":14050,"▁locomotive":14051,"icity":14052,"raine":14053,"▁Fergus":14054,"▁custody":14055,"▁Tasman":14056,"▁gaming":14057,"▁joke":14058,"▁fluid":14059,"▁proximity":14060,"▁Tales":14061,"▁Sib":14062,"▁Brew":14063,"olo":14064,"imir":14065,"▁raw":14066,"▁Nobel":14067,"▁Bog":14068,"arted":14069,"▁Agricult":14070,"▁sect":14071,"▁Architect":14072,"▁bankrupt":14073,"▁pronounced":14074,"▁Publishing":14075,"▁redesign":14076,"▁mim":14077,"▁beer":14078,"▁Num":14079,"▁contested":14080,"▁fluor":14081,"▁molecules":14082,"▁currency":14083,"athetic":14084,"▁ally":14085,"▁Kub":14086,"▁Glass":14087,"▁Jeremy":14088,"cious":14089,"▁Suz":14090,"▁lip":14091,"▁undergo":14092,"▁Reading":14093,"ikh":14094,"▁acquire":14095,"▁Twenty":14096,"▁Jennifer":14097,"▁maneuver":14098,"▁Baldwin":14099,"iday":14100,"▁Put":14101,"▁zones":14102,"▁Usher":14103,"nut":14104,"▁tong":14105,"▁puzz":14106,"▁Leban":14107,"ramid":14108,"▁successive":14109,"▁curves":14110,"▁Arkansas":14111,"▁aviation":14112,"▁Bot":14113,"▁allocated":14114,"▁demanding":14115,"▁Ltd":14116,"▁hatch":14117,"▁Mam":14118,"aston":14119,"elfth":14120,"ashing":14121,"▁populated":14122,"▁Hergé":14123,"▁knowing":14124,"▁Romania":14125,"▁Article":14126,"▁memories":14127,"▁Motor":14128,"OR":14129,"pit":14130,"alysis":14131,"▁CC":14132,"▁Bent":14133,"urbs":14134,"▁Manning":14135,"▁floors":14136,"▁Preston":14137,"front":14138,"xide":14139,"▁Buch":14140,"▁Laf":14141,"▁unaware":14142,"▁Shadow":14143,"▁Adri":14144,"▁separately":14145,"▁1879":14146,"▁gathering":14147,"PS":14148,"lass":14149,"▁Suff":14150,"▁Stories":14151,"osity":14152,"ripp":14153,"▁preliminary":14154,"▁publish":14155,"▁cease":14156,"▁Banksia":14157,"▁reef":14158,"▁disgu":14159,"▁interrupted":14160,"▁regardless":14161,"▁dawn":14162,"umar":14163,"▁McDonald":14164,"iary":14165,"wig":14166,"▁JG":14167,"▁Ow":14168,"▁Allmusic":14169,"▁discussions":14170,"▁Garc":14171,"M.":14172,"eria":14173,"▁golf":14174,"▁scrapped":14175,"▁Pall":14176,"▁proud":14177,"▁perpet":14178,"▁advances":14179,"▁massacre":14180,"▁screening":14181,"▁comparable":14182,"▁deployment":14183,"▁nineteenth":14184,"pes":14185,"rez":14186,"▁Kes":14187,"▁Newfound":14188,"▁141":14189,"▁northwestern":14190,"▁tourism":14191,"▁farms":14192,"▁demonstrate":14193,"▁Electronic":14194,"▁Industrial":14195,"▁Idol":14196,"▁discontinued":14197,"nan":14198,"▁Hous":14199,"▁damages":14200,"▁Minogue":14201,"guard":14202,"▁editorial":14203,"▁cylind":14204,"asse":14205,"▁Chase":14206,"▁Orthodox":14207,"▁Perth":14208,"▁Capitol":14209,"▁photographer":14210,"▁installation":14211,"▁cylinder":14212,"▁chord":14213,"▁unrest":14214,"▁Edmonton":14215,"▁Character":14216,"▁Starr":14217,"▁bills":14218,"▁McCain":14219,"▁editing":14220,"▁dynamic":14221,"▁halted":14222,"▁Bengal":14223,"▁Skinner":14224,"▁Task":14225,"▁subsc":14226,"▁Bowie":14227,"▁Nav":14228,"▁subtle":14229,"▁Hawaiian":14230,"▁sew":14231,"▁paved":14232,"urse":14233,"▁Grad":14234,"▁protecting":14235,"▁Ports":14236,"list":14237,"▁anger":14238,"istence":14239,"▁seemingly":14240,"▁subsidi":14241,"▁Lancaster":14242,"tz":14243,"atha":14244,"▁regained":14245,"▁Koreans":14246,"▁Turks":14247,"▁harbor":14248,"▁administered":14249,"▁openly":14250,"▁projected":14251,"▁Single":14252,"ride":14253,"▁Logan":14254,"▁Ing":14255,"▁270":14256,
[...]
